[PAD]
[UNK]
[CLS]
[SEP]
[MASK]
!
"
#
$
%
&
'
(
)
*
+
,
-
.
/
0
1
2
3
4
5
6
7
8
9
:
;
=
?
@
A
B
C
D
E
F
G
H
I
J
K
L
M
N
O
P
Q
R
S
T
U
V
W
X
Y
Z
[
\
]
^
_
`
a
b
c
d
e
f
g
h
i
j
k
l
m
n
o
p
q
r
s
t
u
v
w
x
y
z
{
|
}
~
¡
£
§
«
¬
®
°
±
²
³
´
µ
·
¹
º
»
¼
½
Á
Ä
Å
Æ
Ç
É
Í
Ó
Ö
×
Ø
Ú
Ü
ß
à
á
â
ã
ä
å
æ
ç
è
é
ê
ë
ì
í
î
ï
ð
ñ
ò
ó
ô
õ
ö
÷
ø
ù
ú
û
ü
ý
þ
Ā
ā
ă
ą
ć
Č
č
Đ
đ
ē
ė
ę
ě
ğ
ħ
ī
İ
ı
Ł
ł
ń
ņ
ŋ
ō
ő
œ
ř
Ś
ś
Ş
ş
Š
š
ū
ż
Ž
ž
ƒ
ơ
ư
ǃ
ǎ
ș
ɑ
ɔ
ə
ɛ
ɡ
ɨ
ɪ
ʁ
ʃ
ʊ
ʒ
ʔ
ʰ
ʲ
ʻ
ʼ
ʾ
ʿ
ˈ
ː
˚
́
̃
͡
Α
Β
Γ
Δ
Ε
Θ
Ι
Κ
Λ
Μ
Ν
Ο
Π
Ρ
Σ
Τ
Φ
Χ
Ω
ά
έ
ή
ί
α
β
γ
δ
ε
ζ
η
θ
ι
κ
λ
μ
ν
ξ
ο
π
ρ
ς
σ
τ
υ
φ
χ
ψ
ω
ό
ύ
ώ
А
Б
В
Г
Д
Е
Ж
З
И
К
Л
М
Н
О
П
Р
С
Т
У
Ф
Х
Ц
Ч
Ш
Э
Ю
Я
а
б
в
г
д
е
ж
з
и
й
к
л
м
н
о
п
р
с
т
у
ф
х
ц
ч
ш
щ
ъ
ы
ь
э
ю
я
ё
і
ј
ү
ә
ө
ա
ե
ի
ն
ո
ր
ְ
ִ
ַ
ָ
ֹ
ּ
א
ב
ג
ד
ה
ו
ז
ח
ט
י
כ
ל
ם
מ
ן
נ
ס
ע
פ
ק
ר
ש
ת
ء
أ
إ
ا
ب
ة
ت
ج
ح
خ
د
ذ
ر
ز
س
ش
ص
ط
ع
غ
ف
ق
ك
ل
م
ن
ه
و
ى
ي
َ
ُ
ِ
ّ
ْ
پ
ک
گ
ی
ܐ
ܒ
ܕ
ܘ
ܝ
ܠ
ܡ
ܢ
ܬ
क
त
द
न
प
म
य
र
व
स
ा
ि
ी
ु
े
्
ி
்
න
ම
ා
ก
ค
ง
จ
ช
ด
ต
ท
น
บ
พ
ม
ย
ร
ล
ว
ส
ห
อ
ั
า
ิ
ี
ุ
เ
แ
่
้
์
་
ག
ང
ན
བ
མ
ར
ལ
ས
ི
ེ
ོ
်
ა
ე
ი
ო
რ
ს
ᄀ
ᄂ
ᄃ
ᄅ
ᄆ
ᄇ
ᄉ
ᄋ
ᄌ
ᄎ
ᄐ
ᄒ
ᄠ
ᄡ
ᄭ
ᄯ
ᄲ
ᅀ
ᅡ
ᅥ
ᅩ
ᅳ
ᅴ
ᆞ
ᆡ
ᆨ
ᆫ
ᆮ
ᆯ
ᆰ
ᆷ
ᆺ
ᆼ
ᇰ
ᐨ
ា
ᠠ
ᠡ
ᠢ
ᠣ
ᠤ
ᠨ
ᠬ
ᠭ
ḥ
ṃ
ṇ
ṛ
ṣ
ṭ
ạ
ả
ầ
ậ
ắ
ế
ề
ễ
ệ
ị
ọ
ố
ồ
ộ
ờ
ἀ
Ἀ
ἐ
ἰ
ὁ
ὐ
ὶ
ὸ
ῆ
ῖ
ῦ
ῶ
–
—
―
‘
’
‚
“
”
„
†
‡
•
․
…
‧
‰
′
″
‹
›
※
⁄
₂
₃
€
℃
ℓ
™
⅓
⅔
Ⅰ
Ⅱ
Ⅲ
Ⅳ
Ⅴ
←
↑
→
↓
↔
⇒
∈
∎
−
∙
∞
∼
≈
≠
≡
≤
≥
≪
≫
⊙
⋅
①
②
③
④
⑤
⑥
⑦
⑧
⑨
⑩
─
━
│
└
├
┬
█
■
□
▨
▲
△
▶
▷
◆
◇
○
◎
●
◦
◯
◾
★
☆
☞
♂
♡
♣
♥
♪
♭
♯
⟨
⟩
⟪
⟫
⠀
⦁
、
。
々
〈
〉
《
》
「
」
『
』
【
】
〔
〕
〜
ぁ
あ
い
う
え
お
か
が
き
ぎ
く
ぐ
け
げ
こ
ご
さ
ざ
し
じ
す
ず
せ
ぜ
そ
ぞ
た
だ
ち
っ
つ
づ
て
で
と
ど
な
に
ぬ
ね
の
は
ば
ぱ
ひ
び
ぴ
ふ
ぶ
へ
べ
ほ
ぼ
ま
み
む
め
も
ゃ
や
ゅ
ゆ
ょ
よ
ら
り
る
れ
ろ
わ
を
ん
ァ
ア
ィ
イ
ウ
ェ
エ
ォ
オ
カ
ガ
キ
ギ
ク
グ
ケ
ゲ
コ
ゴ
サ
ザ
シ
ジ
ス
ズ
セ
ゼ
ソ
タ
ダ
チ
ッ
ツ
テ
デ
ト
ド
ナ
ニ
ヌ
ネ
ノ
ハ
バ
パ
ヒ
ビ
ピ
フ
ブ
プ
ヘ
ベ
ペ
ホ
ボ
ポ
マ
ミ
ム
メ
モ
ャ
ヤ
ュ
ユ
ョ
ヨ
ラ
リ
ル
レ
ロ
ワ
ヲ
ン
ヴ
ヶ
・
ー
ㄱ
ㄲ
ㄴ
ㄷ
ㄸ
ㄹ
ㅁ
ㅂ
ㅃ
ㅅ
ㅆ
ㅇ
ㅈ
ㅉ
ㅊ
ㅋ
ㅌ
ㅍ
ㅎ
ㅏ
ㅐ
ㅑ
ㅓ
ㅔ
ㅕ
ㅗ
ㅛ
ㅜ
ㅠ
ㅡ
ㅣ
ㅿ
ㆁ
ㆍ
㈜
㎏
㎑
㎒
㎜
㎝
㎞
㎡
㎢
㎥
㎾
一
丁
七
万
丈
三
上
下
不
与
丑
专
且
丕
世
丘
丙
业
东
丞
両
並
中
串
丸
丹
主
乂
乃
久
之
乎
乐
乗
乘
乙
九
乞
也
乡
书
乭
乱
乳
乾
亀
亂
了
予
争
事
二
于
云
互
五
井
亘
亜
亞
亡
交
亥
亦
亨
享
京
亭
亮
人
什
仁
仇
今
介
仍
仏
仔
仕
他
付
仙
代
令
以
仮
仰
仲
件
任
企
伊
伍
伎
伏
伐
休
会
伝
伯
伴
伸
伺
似
伽
但
位
低
住
佐
佑
体
何
余
佛
作
你
佩
佳
使
侃
來
例
侍
供
依
侮
侯
侵
侶
便
係
促
俊
俗
保
俠
信
修
俱
俳
俸
倂
倉
個
倍
們
倒
候
倚
借
倡
値
倫
倭
倻
偃
假
偈
偉
偏
停
健
偰
側
偵
偶
傅
傍
傑
傘
備
催
傭
傲
傳
債
傷
傾
僉
像
僑
僕
僖
僚
僞
僧
價
儀
儁
億
儉
儒
償
優
儲
儺
儼
儿
兀
允
元
兄
充
兆
先
光
克
兌
免
兎
児
兒
兗
党
兜
兢
入
內
全
兩
兪
八
公
六
兮
共
兵
其
具
典
兼
冀
内
円
冉
冊
再
冒
冕
军
冠
冥
冬
冰
冲
冶
冷
准
凉
凌
凍
凝
几
凡
凰
凱
凶
凸
凹
出
函
刀
分
切
刊
刑
列
初
判
別
利
到
制
刷
券
刹
刺
刻
則
削
剋
剌
前
剛
剝
剣
剩
副
割
創
劃
劇
劉
劍
劑
劒
力
功
加
劣
动
助
劫
労
勃
勅
勇
勉
勒
動
勘
務
勛
勝
勞
募
勢
勣
勤
勲
勳
勵
勸
勾
勿
包
化
北
匠
匡
匣
匪
匹
区
医
區
十
千
升
午
半
卍
华
卑
卒
卓
協
南
博
卜
卞
占
卦
卨
卯
印
危
即
却
卵
卷
卽
卿
厚
原
厥
厭
厲
厳
去
县
参
參
叅
又
叉
及
友
双
反
叔
取
受
叙
叛
叟
叡
叢
口
古
句
只
召
可
台
叱
史
右
号
司
各
合
吉
同
名
后
吏
吐
向
君
吟
否
含
吳
吴
吸
吹
吾
呂
呈
呉
告
周
呪
味
呼
命
和
咨
咸
哀
品
哈
哉
員
哥
哨
哭
哲
唄
唐
唯
唱
商
問
啓
善
喆
喇
喉
喜
喩
喪
喬
單
営
嗣
嘉
嘗
器
噴
嚴
囊
囚
四
回
因
团
団
园
図
固
国
图
圃
圈
國
圍
園
圓
圖
團
土
在
圭
地
场
址
坂
均
坊
坐
坑
坡
坤
坦
坪
垂
垈
型
垠
垢
垣
埈
埋
城
埔
域
執
培
基
堀
堂
堅
堆
堡
堤
堪
堯
堰
報
場
堵
堺
塊
塑
塔
塗
塘
塚
塞
塡
塩
塵
塼
塾
境
墓
増
增
墟
墨
墩
墳
墻
壁
壇
壓
壕
壘
壞
壤
士
壬
壯
声
壱
売
壹
壺
壻
壽
変
夏
夔
夕
外
多
夜
夢
大
天
太
夫
央
失
夷
夾
奇
奈
奉
奎
奏
奐
契
奔
奕
奘
奚
奠
奢
奥
奧
奪
奬
奭
奮
女
奴
奸
好
如
妃
妄
妓
妖
妙
妹
妻
妾
姉
始
姑
姓
委
姚
姜
姦
姪
姫
姬
姻
威
娑
娘
娜
娥
婁
婆
婚
婢
婦
媒
媛
嫁
嫉
嫌
嫡
嬪
嬰
嬴
子
孔
字
存
孚
孛
孝
孟
季
孤
学
孫
學
孺
宁
宅
宇
守
安
宋
完
宏
宗
官
宙
定
宛
宜
宝
実
客
宣
室
宥
宦
宫
宮
宰
害
宴
家
宸
容
宿
寂
寃
寄
寅
密
寇
富
寒
寓
寔
寛
察
寡
寢
實
寧
審
寫
寬
寮
寵
寶
寸
寺
対
寿
封
専
射
将
將
專
尉
尊
尋
對
導
小
少
尔
尖
尙
尚
尤
就
尸
尹
尺
尻
尼
尾
尿
局
居
屈
屋
屍
展
屛
屠
層
履
屬
屯
山
岐
岑
岛
岡
岩
岬
岭
岱
岳
岸
峙
峠
峨
峯
峰
峴
島
峻
峽
崇
崎
崑
崔
崖
崗
崙
崩
嵌
嵩
嵯
嶋
嶠
嶺
嶼
嶽
巖
川
州
巡
巢
工
左
巧
巨
巫
差
己
已
巳
巴
巷
巻
巽
巾
市
布
希
帖
帛
帝
帥
師
席
帯
帳
帶
常
帽
幀
幅
幕
幡
幢
幣
干
平
年
幷
幸
幹
幻
幼
幽
幾
广
庁
広
庄
庇
床
序
底
店
庚
府
度
座
庫
庭
庵
庶
康
庸
庾
廈
廉
廊
廓
廛
廟
廠
廢
廣
廬
廳
延
廷
建
廻
开
弁
弄
弊
式
弐
弓
弔
引
弗
弘
弟
张
弥
弦
弧
弩
弱
張
強
强
弼
弾
彈
彊
彌
当
彙
彛
形
彦
彧
彩
彪
彫
彬
彭
彰
影
役
彼
往
征
待
律
後
徐
徑
徒
従
得
從
御
復
循
微
徳
徵
德
徹
徽
心
必
忌
忍
志
忘
応
忠
快
念
忽
忿
怒
怖
思
怠
怡
急
性
怨
怪
恂
恋
恐
恒
恕
恚
恤
恥
恨
恩
恪
恬
恭
息
恵
悅
悉
悌
悍
悔
悟
患
悪
悲
悳
悼
情
惇
惑
惛
惜
惟
惠
惡
惣
惱
想
惺
愁
愈
愍
意
愚
愛
感
愧
愼
愾
慄
慈
態
慎
慕
慚
慢
慣
慧
慮
慰
慳
慶
慾
憂
憍
憐
憑
憙
憤
憩
憲
憶
懈
應
懋
懐
懲
懶
懷
懸
懺
懿
戀
戈
戊
戌
戍
戎
成
我
戒
或
戚
戟
戡
戦
戰
戱
戲
戴
戶
戸
房
所
扁
扇
扈
手
才
打
托
扶
批
承
技
抄
把
抑
投
抗
折
抱
抵
抹
押
抽
拂
拉
拍
拒
拓
拔
拘
拙
招
拜
括
拯
拱
拳
拾
持
指
按
振
挺
捕
捨
捷
掃
授
掉
掌
排
掖
掘
掛
採
探
接
推
掾
揆
描
提
揚
換
揮
援
揷
損
搜
摂
摠
摩
撃
撒
撤
撥
撫
播
撮
撰
擇
擊
操
擔
據
擦
擧
擬
擴
擾
攀
攘
攝
支
收
攷
攸
改
攻
放
政
故
效
敍
敎
敏
救
敖
敗
教
敞
敢
散
敦
敬
数
整
敵
敷
數
斂
文
斉
斌
斎
斐
斑
斗
料
斛
斜
斡
斤
斥
斧
斬
断
斯
新
斷
方
於
施
旅
旋
旌
族
旗
无
旣
日
旦
旧
旨
早
旬
旭
旱
旺
旻
旼
旽
昆
昇
昉
昊
昌
明
昏
易
昔
昕
星
映
春
昧
昭
是
昱
昶
昻
時
晃
晉
晋
晏
晝
晟
晦
晨
晩
普
景
晳
晴
晶
晷
智
暇
暉
暎
暑
暖
暗
暢
暦
暮
暴
暹
曄
曆
曇
曉
曙
曜
曦
曰
曲
更
書
曹
曺
曼
曽
曾
替
最
會
月
有
朋
服
朔
朕
朗
望
朝
期
木
未
末
本
札
朱
朴
机
杉
李
杏
材
村
杓
杖
杜
杞
束
条
来
杭
杯
杰
東
杵
松
板
析
枕
林
枚
果
枝
枯
架
柄
柏
某
染
柔
柯
柱
柳
柴
柵
査
栄
栖
栗
校
栢
株
核
根
格
栽
桂
桃
案
桐
桑
桓
桜
桥
桶
梁
梅
梓
條
梧
梨
梯
械
梵
棄
棋
棒
棗
棘
棟
棠
森
棲
棺
椅
植
椎
椒
検
椿
楊
楓
楚
楞
楠
楡
楨
業
楮
楯
極
楷
楸
楼
楽
榜
榮
榴
槃
構
槍
槐
様
槨
槪
槽
槿
樂
樊
樑
樓
標
樞
模
樣
権
横
樵
樹
樺
橋
橘
機
橫
檀
檄
檜
檢
櫓
櫛
欄
權
次
欣
欲
欺
欽
款
歆
歌
歎
歐
歡
止
正
此
步
武
歩
歲
歳
歴
歷
歸
死
殉
殊
殖
殘
殯
段
殷
殺
殼
殿
毁
毅
毋
毌
母
每
毒
毓
比
毗
毘
毛
毫
毬
氏
氐
民
気
氣
水
氷
永
汀
汁
求
汎
汗
汚
汝
江
池
污
汪
汲
汴
汶
決
汽
汾
沂
沃
沅
沆
沈
沒
沔
沖
沙
沛
沢
沫
沮
河
沸
油
治
沼
沿
況
泉
泊
泌
泓
法
泗
泡
波
泣
泥
注
泮
泰
泳
洋
洗
洙
洛
洞
津
洪
洲
洵
活
洽
派
流
浄
浅
济
浙
浚
浜
浣
浦
浩
浪
浮
浴
海
浸
浿
涅
涇
消
涉
涯
液
涵
涼
淀
淄
淑
淚
淡
淨
淫
淮
深
淳
淵
混
淸
淺
添
清
済
渋
渓
渚
減
渠
渡
渤
温
測
渭
港
渴
游
渾
湊
湌
湍
湖
湘
湛
湜
湯
湾
満
源
準
溝
溟
溥
溪
溫
溶
滄
滅
滉
滋
滎
滑
滝
滯
滸
滿
漁
漂
漆
漏
漑
演
漕
漠
漢
漣
漫
漬
漳
漸
潁
潑
潔
潘
潛
潟
潢
潤
潭
潮
潼
澄
澈
澗
澤
澮
澳
激
濁
濂
濃
濊
濕
濟
濠
濡
濤
濬
濮
濯
濱
瀋
瀑
瀛
瀬
瀷
灌
灘
灝
灣
火
灯
灰
灼
災
炅
炎
炫
炭
炯
炳
点
為
烈
烏
烟
烽
焉
焚
無
焦
焰
然
焼
煌
煎
煕
煙
煜
煥
照
煩
煬
熊
熙
熟
熱
熹
熾
燁
燃
燈
燐
燒
燕
營
燦
燧
燭
燮
燾
爀
爆
爐
爪
爭
爱
爲
爵
父
爻
爽
爾
片
版
牌
牒
牙
牛
牟
牡
牢
牧
物
牲
特
牽
犀
犁
犬
犯
状
狀
狂
狄
狐
狗
狩
独
狭
狹
狼
猛
猪
猫
猶
猷
猿
獄
獅
獐
獨
獲
獵
獸
獻
玄
玆
率
玉
王
玖
玟
玩
玲
玹
珉
珍
珠
珣
珥
珦
珩
珪
班
現
球
琅
理
琉
琛
琢
琦
琪
琬
琮
琯
琰
琳
琴
琵
琶
瑀
瑕
瑗
瑚
瑛
瑜
瑞
瑟
瑠
瑢
瑤
瑩
瑪
瑾
璃
璇
璉
璋
璘
璜
璟
璣
璧
環
璽
璿
瓊
瓘
瓚
瓜
瓢
瓣
瓦
瓷
甁
甄
甑
甕
甘
甚
生
產
産
用
甫
田
由
甲
申
电
男
甸
町
画
界
畏
畑
留
畜
畝
畠
畢
略
番
畫
異
畵
當
畿
疆
疇
疎
疏
疑
疫
疾
病
症
痘
痛
瘡
療
癌
癡
癸
発
登
發
白
百
的
皆
皇
皐
皓
皮
盃
盆
盈
益
盒
盛
盜
盟
盡
監
盤
盧
目
盲
直
相
盾
省
眉
看
県
眞
真
眠
眼
眾
着
睡
督
睦
睿
瞋
瞻
矛
矢
矣
知
矩
短
矯
石
砂
研
砥
砦
砲
破
硏
硬
硯
碍
碎
碑
碣
碧
碩
確
磁
磎
磐
磨
磯
礎
礙
礪
示
礼
社
祀
祁
祇
祈
祉
祐
祕
祖
祗
祚
祜
祝
神
祠
祥
票
祭
祺
祿
禁
禄
禅
禍
禎
福
禑
禦
禧
禪
禮
禰
禱
禹
禽
禾
禿
秀
私
秉
秋
科
秘
租
秦
秩
移
稀
稅
程
稙
稚
稜
稟
稠
種
稱
稲
稷
稻
稽
稿
穀
穂
穆
積
穎
穗
穡
穢
穩
穰
穴
究
空
穿
突
窒
窓
窟
窩
窮
窯
窺
竇
立
站
竜
竝
竟
章
童
竪
端
競
竹
竺
竿
笏
笑
笛
笠
符
第
筆
等
筋
筍
筑
筒
答
策
筠
筵
箋
箏
箕
算
箚
管
箭
箱
箴
節
範
篆
篇
築
篠
篤
簡
簪
簽
簾
簿
籌
籍
籠
籬
米
粉
粒
粗
粘
粟
粧
粲
粹
精
糖
糧
糸
系
糾
紀
紂
約
紅
紋
納
純
紗
紙
級
紛
素
紡
索
紫
累
細
紳
紹
紺
終
絃
組
経
結
絡
給
統
絲
絵
絶
絹
綏
經
継
続
綜
綠
綬
維
綱
網
綴
綸
綺
綽
綾
綿
緋
総
緒
緖
線
緝
緣
編
緩
緯
練
縁
縄
縛
縣
縮
縱
總
績
繁
繆
織
繕
繡
繩
繪
繫
繼
纂
續
纏
纖
纘
红
线
经
缺
罕
罪
置
罰
署
罷
羅
羊
羌
美
群
羨
義
羲
羽
翁
翅
翊
翎
習
翔
翟
翠
翰
翼
耀
老
考
者
耆
耉
而
耐
耕
耘
耳
耶
耽
耿
聃
聖
聘
聚
聞
聯
聰
聲
職
聽
肅
肆
肇
肉
肖
肝
股
肢
肥
肩
肯
育
肺
胃
胄
背
胎
胚
胞
胡
胤
胥
胴
胸
能
脂
脇
脈
脊
脚
脣
脩
脫
腎
腐
腔
腕
腦
腫
腰
腸
腹
腺
膜
膝
膠
膳
膺
膽
臂
臘
臟
臣
臥
臧
臨
自
至
致
臺
臼
舅
與
興
舉
舊
舌
舍
舎
舒
舘
舜
舞
舟
航
般
舶
船
艇
艦
艮
良
色
艶
艾
芒
芙
芝
芬
芮
花
芳
芸
芽
苏
苑
苔
苗
苞
若
苦
苯
英
苻
茂
范
茅
茶
荀
草
荊
荒
荘
荷
莊
莒
莖
莘
莞
莫
莽
菁
菅
菊
菌
菜
菟
菩
華
菱
菴
萄
萊
萌
营
萩
萬
萱
落
葉
著
葛
葡
董
葦
葬
葵
蒙
蒲
蒸
蒼
蓄
蓉
蓋
蓬
蓮
蔘
蔚
蔡
蔣
蔭
蔵
蕃
蕙
蕩
蕭
薄
薇
薊
薛
薦
薨
薩
薪
薬
薰
藁
藍
藏
藜
藝
藤
藥
藩
藪
藻
蘆
蘇
蘊
蘭
蘿
虎
虐
虔
處
虛
虜
虞
號
虹
蛇
蛋
蜀
蜂
蜜
蝕
蝦
蝶
融
螺
蟲
蟹
蟾
蠟
蠶
蠻
血
衆
行
衍
術
街
衙
衛
衝
衞
衡
衢
衣
表
衫
衰
衷
衿
袁
袈
袋
袍
袖
袞
被
裁
裂
装
裏
裔
裕
裙
補
裝
裟
裡
裨
裳
裴
裵
裸
製
複
褒
襄
襲
西
要
覆
覇
見
規
視
覚
覧
親
観
覺
覽
觀
视
角
解
觸
言
訂
計
討
訓
託
記
訟
訣
訥
訪
設
許
訴
訶
診
註
詐
詔
評
詞
詠
詢
試
詩
詮
詰
話
該
詳
詵
詹
誅
誌
認
誑
誓
誕
誘
語
誠
誡
誣
誤
誥
誦
說
説
読
誰
課
誼
調
諂
談
請
諍
諏
諒
論
諡
諦
諧
諫
諭
諱
諶
諸
諺
諾
謀
謁
謂
謙
講
謝
謠
謨
謬
謹
證
識
譙
譚
譜
警
譯
議
護
譽
讀
讃
變
讓
讖
讚
谷
谿
豆
豈
豊
豐
象
豪
豫
豹
貊
貌
貝
貞
負
財
貢
貧
貨
販
貪
貫
責
貯
貳
貴
買
貸
費
貿
賀
賁
賃
資
賈
賊
賑
賓
賜
賞
賢
賣
賤
賦
質
賭
賴
贈
贊
贍
贖
赤
赦
赫
走
赴
起
超
越
趙
趣
足
趺
趾
跋
跏
距
跡
路
跳
踊
踏
踐
踰
蹄
蹟
蹴
躍
身
軀
車
軌
軍
軒
軛
軟
転
軫
軸
軽
軾
載
輔
輕
輛
輝
輦
輩
輪
輯
輸
輿
轄
轉
轍
车
辛
辞
辟
辦
辨
辭
辯
辰
辱
農
辺
辻
迅
迎
运
近
返
迦
迪
迫
述
迷
迹
追
退
送
适
逃
逆
逍
透
逐
逑
途
通
逝
速
造
逢
連
週
進
逵
逸
遁
遂
遇
遊
運
遍
過
道
達
違
遙
遜
遞
遠
遣
適
遮
遲
遵
遷
選
遺
遼
避
還
邇
邊
邑
邕
邢
那
邦
邪
邯
邱
邳
邵
邸
邾
郁
郊
郎
郞
郡
郢
部
郭
郵
郷
都
鄂
鄉
鄒
鄕
鄙
鄧
鄭
鄴
酉
酌
配
酒
酵
酸
醇
醉
醍
醐
醒
醜
醫
醬
醮
醴
采
釉
釋
里
重
野
量
釐
金
釜
針
釣
鈔
鈕
鈞
鈴
鈺
鉄
鉅
鉉
鉛
鉢
銀
銃
銅
銑
銓
銖
銘
銭
鋒
鋪
鋼
錄
錐
錘
錢
錦
錫
錮
錯
録
鍊
鍋
鍛
鍵
鍼
鍾
鎌
鎔
鎖
鎬
鎭
鎮
鎰
鏞
鏡
鐘
鐵
鐸
鑄
鑑
鑒
鑛
鑲
鑴
铁
镇
長
长
門
閉
開
閏
閑
間
閔
関
閣
閤
閥
閩
閭
閱
閻
閼
闇
闊
闕
闘
關
闡
闢
门
阜
阪
阮
防
阳
阿
陀
陂
附
陈
降
限
陛
陜
陝
陞
陟
院
陣
除
陪
陰
陳
陵
陶
陸
陽
隅
隆
隈
隊
隋
隍
階
隔
際
障
隠
隣
隧
隨
險
隱
隴
隷
隸
雀
雁
雄
雅
集
雇
雉
雍
雑
雒
雕
雖
雙
雜
雞
離
難
雨
雪
雲
零
雷
電
需
震
霊
霍
霖
霜
霞
霧
露
霸
霽
靈
靑
青
靖
静
靜
非
靡
面
革
靺
鞍
鞠
鞨
鞭
韋
韓
韜
音
韶
韻
響
頂
頃
項
順
須
頌
預
頓
領
頤
頭
頸
頼
題
額
顎
顏
顔
顕
顗
願
顚
顛
類
顥
顧
顯
風
风
飛
飜
食
飡
飢
飮
飯
飼
飾
養
餓
餘
餠
館
饒
饔
首
香
馥
馨
馬
馮
馹
駅
駐
駒
駕
駙
駱
駿
騎
騒
騰
驅
驍
驗
驚
驛
驤
驥
驪
马
骨
髓
體
高
髮
髻
鬪
鬱
鬼
魁
魂
魏
魔
魚
魯
鮑
鮮
鯉
鯨
鰲
鱗
鳥
鳩
鳳
鳴
鴨
鴻
鵝
鵬
鵲
鶴
鷄
鷗
鷲
鷹
鷺
鸞
鹽
鹿
麒
麓
麗
麟
麤
麥
麴
麵
麻
麿
黃
黄
黎
黑
黒
黔
默
黙
黜
點
黨
黯
鼎
鼓
鼠
鼻
齊
齋
齒
齡
龍
龐
龕
龙
龜
가
각
간
갇
갈
갉
감
갑
값
갓
갔
강
갖
갗
같
갚
갛
개
객
갠
갤
갬
갭
갯
갰
갱
갸
갹
걀
거
걱
건
걷
걸
검
겁
것
겅
겉
겊
게
겐
겔
겜
겟
겠
겡
겨
격
겪
견
결
겸
겹
겼
경
곁
계
고
곡
곤
곧
골
곰
곱
곳
공
곶
과
곽
관
괄
괌
광
괘
괜
괭
괴
괵
괸
괼
굄
굉
교
구
국
군
굳
굴
굵
굶
굼
굽
굿
궁
궂
궈
궉
권
궐
궜
궤
궬
귀
귄
귈
귐
귓
규
균
귤
귬
그
극
근
글
긁
금
급
긋
긍
긔
기
긱
긴
길
김
깁
깃
깅
깊
까
깍
깎
깐
깔
깜
깝
깟
깡
깥
깨
깬
깰
깻
깼
깽
꺼
꺽
꺾
껀
껄
껌
껍
껏
껐
껑
께
껫
껴
꼈
꼬
꼭
꼰
꼴
꼼
꼽
꼿
꽁
꽂
꽃
꽈
꽉
꽌
꽝
꽤
꽹
꾀
꾸
꾹
꾼
꿀
꿇
꿈
꿉
꿋
꿍
꿔
꿨
꿩
꿰
뀌
뀐
뀔
뀜
끄
끈
끊
끌
끓
끔
끗
끝
끼
끽
낀
낄
낌
낏
낑
나
낙
낚
난
낟
날
낡
남
납
낫
났
낭
낮
낯
낱
낳
내
낵
낸
낼
냄
냅
냇
냈
냉
냐
냑
냔
냘
냠
냥
너
넉
넋
넌
널
넒
넓
넘
넙
넛
넜
넝
넣
네
넥
넨
넬
넴
넵
넷
넸
넹
녀
녁
년
념
녓
녔
녕
녘
녜
녠
녤
노
녹
논
놀
놈
놉
놋
농
높
놓
놔
놨
뇌
뇨
뇬
뇰
뇽
누
눅
눈
눌
눔
눕
눗
눙
눠
눴
뉘
뉜
뉠
뉴
뉼
늄
늉
느
늑
는
늘
늙
늠
능
늦
늪
늬
니
닉
닌
닐
님
닙
닛
닝
닢
다
닥
닦
단
닫
달
닭
닮
닳
담
답
닷
당
닻
닿
대
댁
댄
댈
댐
댑
댓
댔
댕
댜
더
덕
던
덜
덞
덟
덤
덥
덧
덩
덫
덮
데
덱
덴
델
뎀
뎁
뎃
뎅
뎌
뎐
뎠
뎨
뎬
도
독
돈
돋
돌
돔
돕
돗
동
돛
돠
돤
돼
됐
되
된
될
됨
됩
됭
됴
두
둑
둔
둘
둠
둡
둣
둥
둬
뒀
뒤
뒨
뒬
뒷
뒹
듀
듄
듈
듐
드
득
든
듣
들
듦
듬
듭
듯
등
듸
디
딕
딘
딛
딜
딤
딥
딧
딩
딪
따
딱
딴
딸
땀
땃
땄
땅
땋
때
땐
땔
땜
땠
땡
떠
떡
떤
떨
떫
떳
떴
떻
떼
뗀
뗄
뗏
뗐
또
똑
똔
똘
똠
똥
뚜
뚝
뚠
뚤
뚫
뚬
뚱
뛰
뛴
뛸
뜀
뜨
뜩
뜬
뜯
뜰
뜸
뜻
띄
띈
띌
띔
띠
띤
띨
띵
라
락
란
랄
람
랍
랏
랐
랑
랗
래
랙
랜
랠
램
랩
랫
랬
랭
랴
략
랸
량
러
럭
런
럴
럼
럽
럿
렀
렁
렇
레
렉
렌
렐
렘
렙
렛
렝
려
력
련
렬
렴
렵
렷
렸
령
례
롄
로
록
론
롤
롬
롭
롯
롱
롼
뢰
뢴
뢸
룀
룅
료
룔
룝
룡
루
룩
룬
룰
룸
룹
룻
룽
뤄
뤘
뤼
뤽
륀
륄
륌
륑
류
륙
륜
률
륨
륭
르
륵
른
를
름
릅
릇
릉
릎
리
릭
린
릴
림
립
릿
링
마
막
만
많
맏
말
맑
맘
맙
맛
망
맞
맟
맡
맣
매
맥
맨
맬
맴
맵
맷
맸
맹
맺
먀
먄
머
먹
먼
멀
멈
멋
멍
멎
메
멕
멘
멜
멤
멥
멧
멩
며
멱
면
멸
몄
명
몇
몌
몐
모
목
몫
몬
몯
몰
몸
몹
못
몽
뫼
묀
묄
묘
묜
묠
무
묵
묶
문
묻
물
묽
뭄
뭇
뭉
뭍
뭐
뭔
뭘
뮈
뮌
뮐
뮤
뮨
뮬
뮴
므
믄
믈
믐
믜
미
믹
민
믿
밀
밂
밈
밉
밋
밌
밍
및
밑
바
박
밖
반
받
발
밝
밟
밤
밥
밧
방
밭
배
백
밴
밸
뱀
뱁
뱃
뱅
뱉
뱌
뱐
버
벅
번
벋
벌
범
법
벗
벙
벚
베
벡
벤
벧
벨
벰
벱
벳
벵
벼
벽
변
별
볍
볏
볐
병
볕
볜
보
복
볶
본
볼
봄
봅
봇
봉
봐
봤
뵈
뵐
뵘
뵙
뵤
부
북
분
불
붉
붐
붑
붓
붕
붙
뷔
뷘
뷜
뷧
뷰
뷴
뷸
븀
브
븐
블
븡
비
빅
빈
빌
빔
빕
빗
빙
빚
빛
빠
빡
빤
빨
빰
빳
빴
빵
빻
빼
빽
뺀
뺄
뺌
뺏
뺐
뺑
뺨
뻐
뻑
뻔
뻗
뻘
뻣
뻤
뻥
뻬
뼈
뼉
뼛
뽀
뽁
뽈
뽐
뽑
뽕
뾰
뿅
뿌
뿍
뿐
뿔
뿜
뿡
쁘
쁜
쁠
쁨
삐
삔
삥
사
삭
삯
산
살
삵
삶
삼
삽
삿
샀
상
샅
새
색
샌
샐
샘
샛
생
샤
샥
샨
샬
샴
샵
샷
샹
섀
섄
섐
섕
서
석
섞
선
섣
설
섬
섭
섯
섰
성
섶
세
섹
센
셀
셈
셉
셋
셌
셍
셔
션
셜
셤
셧
셨
셩
셰
셱
셴
셸
솀
솁
솅
소
속
솎
손
솔
솜
솝
솟
송
솥
솽
쇄
쇠
쇤
쇨
쇳
쇼
쇽
숀
숄
숌
숍
숏
숑
수
숙
순
숟
술
숨
숩
숫
숭
숯
숱
숲
숴
쉈
쉐
쉔
쉘
쉥
쉬
쉰
쉴
쉼
쉽
쉿
슈
슌
슐
슘
슛
슝
스
슥
슨
슬
슭
슴
습
슷
승
싀
시
식
신
싣
실
싫
심
십
싯
싱
싶
싸
싹
싼
쌀
쌈
쌉
쌌
쌍
쌓
쌔
쌕
쌘
쌤
쌩
써
썩
썬
썰
썸
썹
썼
썽
쎄
쎈
쏘
쏙
쏜
쏟
쏠
쏨
쏭
쏴
쐈
쐐
쐬
쑈
쑤
쑥
쑨
쑹
쓰
쓱
쓴
쓸
씀
씁
씌
씨
씩
씬
씰
씸
씹
씻
씽
아
악
안
앉
않
알
앎
앓
암
압
앗
았
앙
앞
애
액
앤
앨
앰
앱
앳
앴
앵
야
약
얀
얄
얇
얉
얌
얍
얏
양
얕
얗
얘
어
억
언
얹
얻
얼
얽
엄
업
없
엇
었
엉
엌
엎
에
엑
엔
엘
엠
엡
엣
엥
여
역
엮
연
열
엷
염
엽
엾
엿
였
영
옅
옆
예
옌
옐
옘
옙
옛
옝
오
옥
온
올
옭
옮
옳
옴
옵
옷
옹
옻
와
왁
완
왈
왐
왑
왓
왔
왕
왜
왠
왬
외
왼
욀
요
욕
욘
욜
욤
욥
욧
용
우
욱
운
울
움
웁
웃
웅
워
웍
원
월
웜
웠
웡
웨
웩
웬
웰
웸
웹
웻
웽
위
윅
윈
윌
윔
윕
윗
윙
유
육
윤
율
윰
윳
융
윷
으
윽
은
을
읊
음
읍
읏
응
의
읜
읫
이
익
인
일
읽
잃
임
입
잇
있
잉
잊
잎
자
작
잔
잖
잘
잠
잡
잣
잤
장
잦
재
잭
잰
잴
잼
잽
잿
쟁
쟈
쟌
쟝
저
적
전
절
젊
젋
점
접
젓
정
젖
제
젝
젠
젤
젬
젭
젯
젱
져
젹
젼
졀
졈
졌
졍
졔
조
족
존
졸
좀
좁
종
좆
좇
좋
좌
좡
좨
죄
죈
죌
죠
죤
죵
주
죽
준
줄
줌
줍
줏
중
줘
줬
줴
쥐
쥔
쥘
쥬
쥰
쥴
즈
즉
즌
즐
즘
즙
증
지
직
진
짇
질
짊
짐
집
짓
징
짖
짙
짚
짜
짝
짠
짢
짤
짦
짧
짬
짭
짰
짱
째
짼
쨌
쨍
쨩
쩌
쩍
쩐
쩔
쩡
쩨
쪄
쪼
쪽
쫀
쫄
쫑
쫒
쫓
쬐
쭈
쭉
쭌
쭐
쭝
쭤
쮸
쯔
쯕
쯤
쯩
찌
찍
찐
찔
찜
찟
찡
찢
찧
차
착
찬
찮
찰
참
찹
찻
찼
창
찾
채
책
챈
챌
챔
챕
챗
챘
챙
챠
챤
처
척
천
철
첨
첩
첫
청
체
첵
첸
첼
쳄
쳅
쳇
쳉
쳐
쳔
쳤
초
촉
촌
촐
촘
촙
촛
총
촨
촬
최
쵸
추
축
춘
출
춤
춥
춧
충
춰
췄
췌
취
췬
츄
츈
츠
측
츤
츨
츰
츳
층
치
칙
친
칠
칡
침
칩
칫
칭
카
칵
칸
칼
캄
캅
캇
캉
캐
캑
캔
캘
캠
캡
캣
캥
캬
캰
커
컥
컨
컫
컬
컴
컵
컷
컸
컹
케
켁
켄
켈
켐
켑
켓
켕
켜
켠
켤
켰
코
콕
콘
콜
콤
콥
콧
콩
콰
콴
콸
쾃
쾅
쾌
쾡
쾨
쾰
쿄
쿈
쿠
쿡
쿤
쿨
쿰
쿱
쿳
쿵
쿼
퀀
퀄
퀘
퀜
퀴
퀵
퀸
퀼
큄
큅
큇
큉
큐
큔
큘
크
큰
클
큼
키
킥
킨
킬
킴
킵
킷
킹
타
탁
탄
탈
탉
탐
탑
탓
탔
탕
태
택
탠
탤
탬
탭
탯
탰
탱
탸
터
턱
턴
털
텀
텁
텃
텄
텅
테
텍
텐
텔
템
텝
텟
텡
텨
텼
톄
톈
토
톡
톤
톨
톰
톱
톳
통
퇘
퇴
퇼
툇
툉
툐
툠
투
툭
툰
툴
툼
툽
퉁
퉈
퉜
튀
튄
튈
튕
튜
튠
튤
튬
트
특
튼
튿
틀
틂
틈
틋
틍
틔
티
틱
틴
틸
팀
팁
팃
팅
파
팍
팎
판
팔
팜
팝
팟
팠
팡
팥
패
팩
팬
팰
팸
팹
팻
팽
퍄
퍼
퍽
펀
펄
펌
펍
펏
펑
페
펙
펜
펠
펨
펩
펫
펭
펴
편
펼
폄
폈
평
폐
포
폭
폰
폴
폼
폽
폿
퐁
푀
푄
푈
표
푯
푸
푹
푼
풀
품
풋
풍
퓌
퓐
퓔
퓨
퓰
퓸
프
픈
플
픔
피
픽
핀
필
핌
핍
핏
핑
하
학
한
할
핥
함
합
핫
항
해
핵
핸
핼
햄
햅
햇
했
행
햐
햘
향
허
헉
헌
헐
험
헙
헛
헝
헤
헥
헨
헬
헴
헵
헷
헹
혀
혁
현
혈
혐
협
혓
혔
형
혜
호
혹
혼
홀
홈
홉
홋
홍
홑
화
확
환
활
홧
황
홰
횃
회
획
횔
횟
횡
효
후
훅
훈
훌
훑
훔
훗
훙
훠
훤
훨
훵
훼
휘
휜
휠
휨
휩
휫
휴
휼
흄
흉
흐
흑
흔
흘
흙
흠
흡
흥
흩
희
흰
히
힉
힌
힐
힘
힙
힛
힝
️
！
＃
％
＆
＇
（
）
＊
＋
，
－
．
／
１
２
３
：
；
＜
＝
＞
？
Ｍ
Ｓ
［
］
ｍ
～
｢
｣
･
##크
##데
##리
##다
##로
##디
##정
##관
##드
##윈
##현
##선
##a
##n
##d
##é
##c
##t
##æ
##려
##세
##웠
##l
##i
##o
##s
##e
##p
##u
##b
##이
##취
##안
##k
##r
##h
##g
##카
##르
##신
##ά
##γ
##κ
##η
##우
##진
##z
##y
##를
##스
##모
##나
##m
##E
##베
##티
##영
##미
##숙
##료
##발
##심
##둥
##마
##산
##U
##G
##쟁
##상
##v
##민
##서
##열
##f
##K
##R
##러
##달
##렬
##대
##교
##감
##â
##ρ
##υ
##σ
##얼
##샤
##넌
##큼
##ი
##რ
##ს
##ა
##라
##철
##금
##경
##기
##업
##사
##용
##인
##지
##옥
##T
##V
##승
##근
##x
##종
##른
##트
##슈
##더
##가
##레
##구
##치
##요
##코
##울
##떡
##P
##D
##7
##8
##2
##아
##두
##브
##하
##엘
##본
##테
##파
##노
##네
##캔
##동
##ō
##C
##H
##밀
##저
##설
##링
##ù
##규
##L
##w
##0
##3
##4
##5
##군
##호
##ㅋ
##ㅗ
##보
##학
##A
##궁
##수
##M
##게
##쓰
##쟈
##앙
##투
##주
##J
##몬
##헤
##N
##S
##O
##j
##루
##토
##도
##배
##찰
##프
##시
##ê
##q
##단
##난
##ב
##ר
##י
##ם
##낼
##희
##성
##유
##천
##낭
##고
##석
##격
##화
##초
##균
##속
##니
##9
##야
##ス
##ト
##ル
##Y
##태
##á
##켄
##1
##문
##자
##엄
##럼
##으
##집
##불
##통
##B
##I
##양
##연
##뎃
##츠
##무
##중
##타
##란
##환
##혼
##령
##6
##매
##Σ
##봉
##ᆡ
##역
##홈
##청
##홍
##식
##월
##원
##회
##워
##목
##짐
##박
##씨
##ᆞ
##ᄆ
##ᆯ
##Τ
##ö
##어
##갈
##까
##효
##섭
##의
##부
##여
##즘
##장
##품
##왕
##전
##딸
##웨
##š
##ć
##계
##제
##길
##ā
##들
##는
##래
##그
##직
##넨
##비
##킨
##결
##な
##っ
##て
##も
##방
##분
##덕
##에
##α
##β
##ν
##τ
##먼
##린
##음
##졌
##며
##つ
##ん
##남
##슬
##간
##골
##악
##맥
##건
##딩
##벤
##F
##둘
##국
##윤
##면
##ε
##ό
##ς
##애
##오
##개
##얄
##람
##해
##쿠
##о
##н
##г
##т
##с
##к
##м
##임
##ᄉ
##겐
##준
##돔
##ä
##만
##л
##ц
##е
##в
##а
##혁
##명
##즈
##X
##슛
##항
##말
##삼
##은
##툰
##б
##и
##법
##W
##톱
##ジ
##ネ
##릉
##욱
##츨
##よ
##み
##ず
##홀
##ð
##재
##너
##셰
##ぐ
##り
##の
##は
##Z
##둬
##た
##い
##흥
##ü
##у
##р
##ь
##й
##형
##암
##운
##위
##먹
##겨
##춘
##권
##림
##늬
##생
##물
##체
##멸
##할
##조
##읍
##실
##플
##평
##や
##え
##피
##و
##ا
##ل
##추
##표
##키
##リ
##ム
##넥
##터
##담
##액
##옷
##キ
##ゴ
##ロ
##ー
##å
##팔
##커
##룡
##순
##콘
##었
##웅
##행
##온
##절
##ğ
##뷘
##덴
##굿
##공
##і
##д
##련
##름
##듀
##닌
##처
##ᅳ
##쿤
##적
##독
##판
##채
##났
##묘
##죄
##ら
##し
##く
##광
##냥
##ß
##バ
##シ
##テ
##ィ
##휴
##뎌
##거
##바
##빈
##َ
##د
##ُ
##ع
##ّ
##ت
##ص
##ر
##ِ
##ف
##와
##렘
##ύ
##내
##믹
##탁
##뷔
##랑
##펠
##험
##뮈
##백
##증
##편
##향
##꽃
##ᆮ
##뭇
##과
##퍼
##컴
##퓨
##엠
##언
##ッ
##グ
##ン
##ド
##す
##お
##נ
##ח
##ē
##올
##긴
##알
##머
##ί
##ο
##창
##강
##셔
##놓
##북
##팡
##일
##막
##록
##î
##곽
##족
##닫
##송
##색
##랏
##차
##등
##ż
##ж
##ô
##필
##컥
##벌
##В
##Р
##О
##밍
##반
##점
##앞
##완
##딘
##컬
##페
##소
##져
##풀
##と
##굴
##쇼
##헌
##햄
##메
##약
##넘
##핑
##푸
##ó
##팅
##훈
##당
##귀
##득
##뚤
##へ
##한
##젠
##삭
##작
##범
##è
##ビ
##립
##벽
##없
##질
##축
##づ
##か
##ç
##ã
##ǎ
##잘
##ì
##ᆷ
##ᄋ
##찌
##ど
##ま
##ㆍ
##입
##콜
##ø
##버
##렐
##릴
##끼
##손
##る
##융
##염
##П
##У
##히
##ラ
##털
##í
##ž
##론
##х
##망
##책
##탐
##ה
##こ
##텍
##텐
##힌
##납
##검
##풍
##굽
##예
##술
##켜
##케
##き
##む
##튼
##탕
##쓸
##렸
##병
##댐
##참
##함
##포
##ш
##я
##협
##념
##압
##런
##잭
##슨
##별
##곡
##ş
##띠
##닛
##앵
##렴
##닐
##누
##써
##릅
##อ
##น
##밥
##ř
##짜
##션
##살
##イ
##싱
##큰
##ぼ
##だ
##ち
##든
##２
##３
##움
##ノ
##ベ
##괄
##낀
##각
##복
##ほ
##ろ
##좌
##클
##ニ
##ク
##ア
##척
##셋
##댕
##농
##칼
##슘
##새
##낌
##껄
##류
##렌
##귓
##뉴
##센
##층
##ū
##à
##Q
##쳐
##έ
##싸
##깔
##з
##ы
##ᄡ
##ᅥ
##э
##ү
##켈
##멱
##챈
##톤
##س
##ي
##ة
##틸
##틀
##プ
##멀
##ש
##ן
##쥐
##쉬
##육
##う
##멘
##율
##외
##익
##톈
##변
##곤
##ب
##햅
##ぴ
##に
##맨
##겼
##첼
##눈
##블
##력
##락
##ז
##ָ
##א
##ל
##껏
##끄
##É
##꼭
##녀
##섬
##탄
##ю
##넷
##뜨
##コ
##삿
##ា
##ق
##받
##침
##얌
##ک
##ی
##밤
##カ
##ё
##혜
##렁
##혈
##م
##객
##혔
##랜
##돌
##촌
##찬
##벨
##れ
##줏
##덥
##잖
##ヤ
##습
##ι
##ώ
##ュ
##턴
##혀
##윌
##롬
##깥
##엔
##퀴
##십
##램
##욕
##젤
##Ü
##닝
##룰
##ᆫ
##ᄯ
##ᄅ
##μ
##ば
##ハ
##ṃ
##で
##べ
##쇄
##을
##ぞ
##め
##극
##착
##끝
##タ
##レ
##ョ
##빌
##맹
##답
##잇
##같
##ح
##ن
##ェ
##ブ
##총
##특
##덤
##캠
##폭
##켓
##쭝
##붕
##견
##충
##땡
##ı
##급
##릭
##ᄂ
##겸
##님
##글
##θ
##ω
##π
##합
##팥
##ि
##ु
##द
##्
##य
##킬
##쭉
##Ц
##И
##К
##탈
##δ
##ょ
##싹
##탑
##옹
##が
##텟
##폐
##친
##ᇰ
##ч
##Н
##흐
##못
##했
##넙
##룀
##پ
##빙
##ე
##ო
##콕
##ξ
##젬
##ャ
##ウ
##ṛ
##チ
##핍
##п
##량
##ă
##딱
##핵
##흠
##늑
##셜
##였
##ħ
##φ
##춰
##낸
##ú
##벅
##Á
##눠
##컨
##밸
##렛
##렵
##ج
##ز
##꼬
##패
##넬
##펀
##せ
##릿
##닥
##칭
##뿔
##갑
##봄
##잎
##닉
##줄
##깅
##잔
##덩
##숭
##쪽
##돈
##짓
##ט
##ק
##ね
##č
##ầ
##응
##즌
##А
##옌
##붙
##쇠
##왜
##후
##ナ
##モ
##뷰
##ī
##냐
##ŋ
##ñ
##쉰
##롤
##촨
##ý
##황
##픔
##ォ
##엽
##쌍
##활
##날
##ᄃ
##エ
##ピ
##롱
##맛
##ị
##죽
##セ
##ả
##렉
##わ
##댜
##놀
##징
##랐
##メ
##밭
##잠
##깁
##느
##מ
##ג
##ツ
##ヒ
##롯
##엿
##뉠
##존
##냈
##あ
##ł
##델
##랭
##허
##웬
##펴
##옛
##늘
##춤
##봐
##겠
##텔
##펭
##앨
##힐
##칸
##튜
##던
##젯
##걸
##콧
##×
##웃
##얀
##뚱
##쳅
##셸
##볼
##륨
##뮤
##똥
##럭
##λ
##Т
##탠
##ś
##ń
##능
##욘
##뢰
##Ö
##ṭ
##်
##غ
##폰
##ᄇ
##앤
##랄
##첩
##ę
##룽
##껴
##되
##꼴
##쳤
##낙
##헬
##툴
##렀
##뇽
##न
##त
##र
##ा
##ी
##팬
##젱
##칙
##폴
##텨
##첨
##탤
##깨
##ه
##률
##빠
##ә
##낄
##Ε
##Ω
##Β
##Ι
##번
##캄
##꾸
##ᄒ
##찾
##ờ
##낮
##죠
##김
##꾼
##ざ
##확
##け
##갔
##샵
##퓌
##슴
##デ
##ή
##핀
##뤼
##マ
##캣
##접
##쥬
##χ
##캐
##맞
##첸
##렙
##칠
##ソ
##フ
##랩
##놔
##휘
##ë
##왔
##펜
##ạ
##촉
##냄
##택
##틱
##틴
##گ
##ズ
##ܐ
##ܘ
##ܢ
##캬
##싼
##샘
##ぬ
##논
##줘
##ى
##ك
##뒤
##풋
##ᠬ
##ᠡ
##ガ
##측
##ぶ
##셉
##빗
##빵
##탬
##を
##밴
##킹
##뱃
##đ
##늄
##엣
##븐
##녕
##럽
##щ
##じ
##ゃ
##럴
##흔
##널
##년
##딜
##례
##륵
##졸
##렝
##컷
##샐
##웻
##덜
##룬
##숑
##넴
##ʊ
##뼈
##さ
##셨
##ぎ
##ゅ
##õ
##랙
##듬
##괭
##쾅
##뱅
##벙
##섹
##û
##륜
##녜
##짝
##샹
##묵
##ご
##꿩
##ф
##곶
##랍
##팀
##콤
##ܒ
##ܝ
##웍
##둣
##빛
##펑
##쥔
##ṣ
##≈
##몐
##ө
##최
##뚜
##톡
##괴
##둑
##셀
##냘
##떨
##젓
##흰
##ְ
##ּ
##ע
##ท
##้
##า
##ค
##ง
##깃
##댓
##뽈
##긍
##땅
##랴
##몰
##맬
##숀
##ư
##웰
##폼
##럿
##ط
##뤄
##ᅩ
##룹
##픽
##칫
##윰
##몫
##Ж
##틋
##룻
##맡
##킥
##왓
##벗
##Í
##템
##섞
##サ
##흘
##뤘
##것
##멜
##둔
##윗
##헨
##갠
##ㅣ
##궐
##섯
##킴
##륭
##オ
##략
##○
##볜
##믈
##ě
##댄
##콥
##펙
##ང
##맙
##딪
##엥
##ė
##퐁
##뇨
##즐
##봤
##볶
##ː
##ˈ
##롄
##ᄎ
##츄
##곳
##ḥ
##롭
##앳
##꿈
##ắ
##넛
##놋
##ོ
##ན
##ミ
##톨
##꽝
##촛
##げ
##ひ
##ล
##ิ
##ว
##퀸
##즉
##뜬
##튬
##쯔
##ั
##ต
##เ
##ร
##์
##뮬
##팽
##벼
##댔
##헷
##젖
##쇳
##갱
##딕
##뚠
##쏘
##أ
##ṇ
##ี
##ส
##출
##붓
##ش
##꼰
##쾌
##ệ
##륀
##팝
##줬
##خ
##땜
##깊
##높
##ギ
##そ
##ボ
##콩
##ᄀ
##룩
##뚝
##잡
##캇
##폈
##ᠠ
##ᠤ
##큐
##엌
##밟
##ْ
##ò
##딤
##끌
##섰
##헝
##び
##쌀
##셴
##힙
##듯
##ペ
##꼽
##흉
##뇌
##솔
##룸
##쑤
##짱
##듈
##ï
##쿼
##ㅡ
##샨
##덮
##ַ
##퉁
##켕
##ゆ
##픈
##찜
##뮨
##꺽
##궤
##ก
##잉
##핸
##뺀
##썰
##샛
##ᆼ
##ㅜ
##컵
##탱
##ъ
##넣
##ห
##쩍
##ふ
##ộ
##С
##М
##쏠
##겁
##몽
##퇴
##З
##쿄
##쿨
##랬
##ම
##훤
##랠
##넹
##랗
##ᅡ
##멍
##콰
##팍
##따
##캅
##맺
##값
##켤
##므
##ו
##⅓
##멧
##끔
##먀
##밋
##ケ
##ء
##ホ
##퍄
##듭
##뿌
##걱
##녹
##녔
##억
##엉
##겅
##겔
##펄
##떼
##œ
##멕
##밧
##쉐
##뱀
##뿐
##◎
##혹
##칩
##삐
##놈
##쌕
##쭈
##켐
##ɔ
##엇
##슝
##귤
##잼
##꿉
##ᆺ
##옴
##킷
##ո
##ユ
##깰
##쁜
##챠
##빨
##곰
##냉
##왈
##팩
##앗
##Š
##씌
##횡
##क
##힘
##ㅌ
##썹
##パ
##밑
##씻
##짖
##ִ
##כ
##พ
##썬
##랫
##볏
##깻
##⅔
##궈
##Ł
##ố
##빅
##ザ
##쿡
##뻐
##톳
##Æ
##째
##즙
##낫
##ㅇ
##흑
##훼
##ヴ
##ァ
##ᆨ
##욤
##때
##귄
##텀
##व
##욜
##찍
##Ν
##Δ
##륙
##컹
##ㅂ
##ゲ
##갓
##훔
##ą
##숫
##빡
##깜
##ぱ
##ダ
##닭
##꿔
##뉼
##돋
##껌
##쌈
##챌
##칵
##뽀
##Α
##팜
##맘
##캉
##웡
##ə
##끈
##릇
##뎅
##ม
##ช
##ย
##맸
##ψ
##웁
##퀘
##튀
##붐
##좀
##낱
##묻
##된
##뻬
##ề
##셩
##뒀
##█
##콴
##앉
##첵
##핥
##ș
##갖
##Л
##Я
##ơ
##굉
##뀐
##뱌
##딛
##स
##ด
##ᄐ
##숴
##힛
##솥
##쩐
##겹
##꾹
##쎄
##썸
##맵
##싯
##뇰
##앓
##땀
##ุ
##몸
##뜻
##좡
##퉈
##펫
##껍
##פ
##ֹ
##Κ
##Ф
##뮌
##ņ
##ܠ
##ི
##냅
##흡
##ᠨ
##찟
##괘
##म
##삽
##뭄
##න
##ᅴ
##쑥
##◇
##ồ
##묄
##ế
##찔
##뢸
##숨
##●
##Д
##Г
##꿀
##섶
##핌
##뎀
##뜩
##찮
##↓
##↑
##ζ
##찐
##밝
##ʔ
##ㅊ
##빼
##뽁
##셈
##짢
##ƒ
##벡
##았
##꺼
##뎠
##훗
##ぜ
##쏭
##ག
##ས
##ポ
##쿵
##획
##딴
##녁
##쫄
##턱
##쁘
##깐
##왁
##ᅀ
##쉘
##슐
##셍
##탓
##뷸
##윅
##햇
##ワ
##뀌
##Ø
##쌌
##뎐
##썽
##꿨
##줌
##ེ
##냠
##됭
##ր
##릎
##ܡ
##ㅏ
##ㅅ
##ㄹ
##븀
##챔
##탯
##ɑ
##닷
##ն
##ա
##ɪ
##≫
##ᄭ
##됴
##놉
##걀
##뒹
##헴
##힝
##탔
##끓
##ᆰ
##팸
##แ
##จ
##쓴
##솜
##깡
##씩
##ヨ
##쨌
##뭉
##꿍
##Ž
##랸
##캡
##펌
##떤
##젼
##ɡ
##넉
##ා
##벵
##윕
##꼈
##홉
##펩
##촐
##캘
##Ä
##뵐
##슭
##ד
##떻
##끗
##큘
##좆
##잣
##←
##푼
##칡
##눕
##ܬ
##쥰
##툼
##젝
##맷
##듐
##훅
##ぁ
##꽂
##텝
##틔
##མ
##좁
##졀
##ヌ
##웹
##ј
##빕
##빔
##̃
##ɛ
##்
##쫓
##씽
##꽁
##뉘
##ʁ
##ʒ
##엑
##뻣
##톰
##궂
##ㅓ
##ㅕ
##ㅛ
##ㅑ
##ㅠ
##낚
##텼
##쉴
##샬
##눌
##많
##밖
##혐
##숏
##뎬
##눔
##푀
##쩨
##딥
##찡
##챘
##ס
##텅
##껑
##ゼ
##쪼
##Э
##짚
##Ο
##뭐
##씬
##ɨ
##녠
##챙
##눙
##쵸
##있
##똘
##췄
##긋
##엾
##켰
##틈
##썩
##봅
##ե
##ի
##닙
##휼
##ᄌ
##่
##ᠣ
##ᠭ
##ő
##ㅎ
##ㅁ
##͡
##뜸
##륄
##핏
##덱
##บ
##텃
##ת
##얘
##돼
##쉥
##팠
##팁
##쯩
##े
##뎨
##뫼
##옐
##폄
##께
##쿰
##Е
##넓
##퍽
##굼
##ῶ
##갬
##않
##촬
##갯
##또
##빳
##쌉
##짤
##ᠢ
##벳
##€
##£
##헐
##ㄷ
##눴
##숟
##짬
##Ρ
##죤
##쾨
##낵
##뛸
##꿰
##꿋
##똔
##볕
##ậ
##찼
##슌
##★
##숍
##귐
##밈
##Θ
##샅
##쩔
##إ
##−
##됨
##뮴
##뛰
##샌
##렷
##샴
##뤽
##떠
##흙
##딧
##귈
##Б
##ར
##팰
##핫
##→
##□
##푹
##렇
##낯
##옵
##뢴
##낳
##བ
##놨
##¹
##쾡
##쿱
##캥
##ễ
##윳
##싶
##댈
##깍
##뀔
##～
##ㅐ
##ㄱ
##ㄴ
##훙
##뼛
##쫑
##뜯
##옙
##☆
##퀀
##곁
##핼
##깽
##윙
##씀
##쫀
##숲
##솟
##½
##헥
##퓰
##젭
##둠
##숌
##Γ
##Λ
##힉
##툭
##ி
##봇
##줍
##눗
##곱
##듣
##횟
##þ
##옻
##멋
##눅
##웽
##츤
##³
##ヘ
##멈
##ǃ
##휠
##띔
##쓱
##쨩
##댁
##쯤
##쳇
##숄
##쁠
##쭤
##츰
##팟
##갛
##숩
##냔
##ذ
##Ｓ
##멩
##잽
##뿍
##Ч
##쨍
##챤
##짰
##뒷
##돗
##윷
##꼼
##Đ
##퀼
##쩌
##뻘
##탸
##썼
##■
##늪
##땃
##벰
##얏
##룝
##샷
##쌓
##뗄
##멥
##찹
##냇
##쑹
##쯕
##듦
##ʰ
##녘
##प
##떳
##헉
##숯
##ọ
##텄
##뽑
##긔
##콸
##쳉
##쭐
##뵈
##탉
##ヲ
##퀜
##짧
##붉
##툽
##꾀
##춥
##ㅆ
##Č
##셱
##닿
##떴
##ㅈ
##갤
##킵
##툉
##ʼ
##빚
##넸
##촘
##윔
##ὸ
##짼
##쁨
##슷
##깎
##짇
##Ｍ
##왑
##Ç
##룔
##끽
##Ú
##댑
##솝
##뜰
##녤
##뽕
##ʃ
##쟌
##삯
##뷜
##읽
##섀
##넝
##빤
##덧
##쌩
##텁
##쑈
##띤
##빽
##땠
##셤
##믜
##ｍ
##짠
##좇
##텡
##웜
##덟
##붑
##홋
##홧
##─
##맣
##낏
##될
##찻
##́
##켠
##´
##앰
##삶
##겟
##뒬
##µ
##큄
##듸
##튠
##훌
##맴
##땐
##뮐
##멤
##뻗
##Φ
##띨
##돠
##롼
##깬
##퀄
##꼿
##륑
##큅
##옘
##훠
##앱
##낑
##÷
##뿡
##뻔
##헛
##괼
##얗
##굳
##쇽
##틍
##Ó
##뉜
##홑
##¬
##켁
##왐
##갰
##룅
##퓸
##앴
##ܕ
##쳔
##℃
##좋
##빰
##깝
##뒨
##뱐
##뇬
##굄
##뺨
##몹
##굵
##돕
##믄
##ལ
##닦
##갸
##①
##및
##갚
##춧
##Х
##탭
##똑
##솎
##ㅔ
##뺐
##Μ
##냑
##늦
##Ш
##ἀ
##ʲ
##헵
##껫
##뵙
##쥘
##엡
##돛
##츈
##폿
##옆
##ㅍ
##돤
##줴
##슥
##ㅉ
##믐
##쑨
##챗
##뻤
##±
##캑
##늠
##팎
##훨
##묜
##쩡
##솽
##큉
##쌔
##홰
##İ
##Χ
##솁
##뻑
##Π
##뿅
##잰
##푈
##샥
##밉
##１
##곧
##━
##몇
##퓔
##둡
##뗀
##뛴
##밌
##퉜
##Ş
##벚
##퀵
##쾰
##쪄
##쮸
##겊
##∼
##졔
##젊
##얽
##땄
##팻
##ㅿ
##씰
##엎
##숱
##∞
##뺄
##죵
##췌
##쉼
##푯
##△
##쾃
##잿
##뀜
##꽈
##씸
##톄
##닳
##튿
##믿
##빴
##쉈
##겡
##쉔
##덫
##♥
##ᄠ
##괵
##흄
##걷
##몄
##늙
##윽
##◆
##넜
##넵
##켑
##낟
##쉽
##쿳
##삵
##웩
##튄
##뾰
##끊
##섕
##쟝
##볐
##몯
##젹
##ʿ
##퇘
##읜
##₂
##ㅃ
##옳
##툐
##닮
##촙
##깟
##늉
##얍
##뺑
##뺏
##욧
##뗐
##꺾
##♪
##뜀
##쳄
##뼉
##️
##옮
##귬
##∙
##탰
##먄
##뱉
##갭
##뵤
##꽌
##맑
##③
##쌘
##햐
##ㄸ
##™
##°
##⠀
##뷴
##덞
##셧
##헹
##웸
##쏙
##띄
##컫
##♣
##≪
##볍
##겜
##훑
##삔
##ㄲ
##▨
##쎈
##셌
##졈
##찧
##펨
##큔
##뻥
##◯
##싣
##죌
##♯
##뭍
##뚬
##Ś
##쬐
##녓
##엮
##튕
##⁄
##뺌
##씹
##큇
##싀
##④
##섣
##겉
##궜
##혓
##팃
##갗
##얹
##펍
##Ⅲ
##뎁
##띵
##뚫
##긱
##뿜
##횔
##짭
##껀
##벱
##툠
##죈
##읏
으로
에서
20
19
한다
201
200
대한
10
까지
에게
으며
된다
지만
부터
사용
##or
미국
18
##er
라고
이후
199
라는
12
일본
면서
는데
##00
##으며
다음
지역
##민국
11
##on
대한민국
다른
경기
프로
##la
##스트
##리아
대학
다고
위해
198
##in
그리
때문
시작
##an
영화
사람
15
따라
선수
함께
사이
그러
또한
16
한국
세계
현재
자신
##시아
국가
경우
##en
기록
197
하나
이름
위치
가장
또는
##ar
17
당시
활동
의해
가지
다는
이나
##주의
리그
for
##mu
그러나
##레이
학교
조선
196
대표
역사
14
프랑
연구
##mula
##ti
formula
##al
##부터
통해
##es
13
사회
그리고
시즌
##으나
194
아니
보다
포함
프랑스
중국
도시
만들
영국
시대
인구
다시
정부
서울
##랜드
는다
195
대해
독일
아이
##he
전쟁
##학교
여러
제작
감독
대회
동안
이상
문화
로서
정치
일부
가능
모든
모두
202
구성
축구
##ic
으나
다가
##is
위원
지방
##라이
문제
개발
방송
처음
알려
위한
배우
km
발매
게임
세기
국제
사건
대학교
30
시간
일반
작품
관계
이루
존재
##니아
음악
기준
이용
였으며
교육
선거
193
경제
운동
##리스
##at
주장
gt
음반
##le
중심
정도
25
나타
거나
lt
##이스
새로
##it
이러
발견
##ou
##부분
했으며
전투
##화국
2010
결과
기술
##통령
사망
21
영향
발표
구조
민주
##el
도록
의미
192
올림
라이
로부터
대부분
태어
시키
아들
대통령
우승
참여
과정
발생
관련
공격
들어
프로그
##리카
##re
유럽
##란드
지원
설치
올림픽
러시아
행정
부분
이전
진행
##디오
특히
##om
중앙
2008
최초
결정
독립
다양
24
22
자유
23
##ol
고등
제국
스타
형태
설립
2011
191
##우스
상태
2012
로마
새로운
##us
여성
##지만
##버지
인해
주로
해당
사실
2014
어서
같이
##tion
2009
소속
일어
타이
이탈
주요
정보
프로그램
2007
그녀
철도
하지만
##나라
##as
생각
중요
조직
필요
생산
참가
나라
##ing
운영
등장
이것
##am
으로서
출신
인민
초등
##르크
데이
바이
관리
##라마
2013
기관
계획
시스
이어
##et
여자
000
위원회
26
##il
출연
##스터
레이
2015
이탈리아
성공
상대
##리즈
2018
계속
2016
##ch
데뷔
시절
매우
기원
과학
28
지정
국민
##프트
그룹
27
따르
대전
초기
방법
전체
드라마
##이션
해서
##레스
고려
##nd
차지
2006
발전
사업
아버지
마이
2017
생활
아래
인도
시리즈
처럼
##ro
##진다
자리
앨범
후보
##이트
월드
보이
제공
##비아
최고
의원
2000
내용
100
생애
시스템
기업
회사
스페
돌아
평가
공식
인터
분류
시기
##비스
##FA
방식
가리
그리스
결국
29
우리
##남도
이유
조사
인간
2019
교회
수상
역할
연합
거의
고등학교
기능
항공
한편
##한다
군사
##운데
정의
연결
태어났
많이
출전
2005
동시
제도
##ra
반대
현대
190
언어
개인
유명
유지
못하
가운데
민족
of
지구
프리
이론
표현
##인다
##ed
해야
노동
였으나
목록
대신
노래
마지
개요
대상
31
##야기
규모
으로써
2020
수도
공개
으로부터
특별
야구
이미
특징
지도
자연
산업
브라
따라서
열린
떨어
승리
2004
마지막
##스크
아르
시장
모습
여기
##BS
기간
각각
플레이
추가
이루어
기타
모델
건설
단체
이르
형성
인정
정책
진출
전문
50
상황
노선
인물
구역
##id
오스트
시켰
이야기
##머니
임명
목적
The
마을
알려져
직접
그것
##이드
공동
##ter
##os
건물
계약
스페인
자동
서로
##북도
##이지
TV
변화
지금
공화국
공간
불리
의회
서비스
##니다
변경
##ig
했으나
가수
보여
결혼
경상
완전
경찰
##mp
##학자
관한
##ac
개최
2002
거리
교수
##ur
FC
우주
부산
사상
기원전
##킨다
전국
활약
40
학생
다이
부르
으면
##운드
경력
졸업
실제
텔레
싱글
최대
의하
##르트
국회
밴드
##프리카
사랑
소설
2003
the
보호
기반
인민공
인민공화국
189
클럽
##od
비롯
운행
##비전
지지
##ad
보통
요구
비판
종교
역시
판매
기본
나이
황제
##거리
##대로
일으
설명
##ent
##스탄
##로스
지하
교통
원래
속하
없이
연방
##른다
차이
그래
자기
도쿄
중화
가진
전통
중학교
시설
도로
##역시
명칭
어떤
달리
전기
환경
##ation
만든
1990
센터
가족
거쳐
수행
아닌
실시
##te
이동
소련
작업
못했
지나
증가
##루스
작곡
공연
한다는
애니
세포
출시
##러스
동물
제외
스위
##ve
행동
모양
2001
통합
혹은
세력
전자
##나다
분야
월드컵
회의
자료
경기도
작용
차량
소프트
예술
기독
##ec
도입
남자
나오
선정
기념
방향
위하
남쪽
북쪽
능력
##um
사고
군대
승강
의한
##너지
부대
##스타
작가
##ot
효과
텔레비전
##린다
바로
##ri
나가
과거
교황
확인
대해서
열차
문학
피해
주변
기독교
기존
지휘
비슷
반응
형식
지배
추정
혁명
##BC
국내
행위
FI
높이
어머니
캐나다
컴퓨
##의원
므로
정당
면적
남부
전라
2021
오늘
유일
이끌
성장
##리오
이때
적용
베이
St
##자리
스트
동일
어린
역임
비교
스포
왕국
뉴욕
부문
시민
마다
종류
마음
인기
이라
승강장
메이
태양
협회
버스
장관
##ir
대사
이사
1980
1999
동쪽
마르
데이터
개념
한다고
디자
건축
##메이션
보내
영어
담당
물리
사무
에너지
상당
공산
버전
자치
이적
32
챔피
##ow
##un
188
크기
서쪽
1998
특정
컴퓨터
육군
자체
조지
선택
구간
조건
애니메이션
연주
대체
다르
amp
달러
##드리
##op
예정
가까
##ce
공항
시켜
포르
연기
공사
멤버
단계
##카이
##ia
평균
실패
연속
35
##시마
올라
차례
작전
고대
치료
어느
스위스
##가지
페르
부족
Ch
발매되
언급
개혁
출판
대구
국립
선언
북부
대하
헌법
이런
선출
인지
분석
물질
FIFA
민주주의
수록
500
60
##웨어
내부
속도
결승
1997
주도
##oc
크리스
충청
는지
##ag
조약
하이
정신
최종
1995
방영
##버스
체제
규정
아시아
1996
in
구단
주연
##글랜드
확장
표준
입단
명령
설계
대중
##므로
로스
사단
친구
베르
연대
##ay
해군
cm
의사
##스코
##트남
밝혔
인천
##ver
유사
지명
최근
스포츠
엔진
위해서
스테
선발
소비
체계
걸쳐
후반
요소
에스
##라스
가치
법원
1994
지속
지냈
보인다
##디어
비행
집단
획득
##리지
##난다
강화
거주
관할
결합
비디오
##메리카
자동차
잉글랜드
관심
머리
소유
1992
분리
##야마
제품
일어나
1970
남성
더욱
파리
요시
재판
실험
조정
목표
마리
배경
In
개월
##코드
외국
파이
mm
##th
폴란드
공원
유래
문자
내려
현상
오늘날
배치
정규
도움
함수
디자인
예선
바르
주민
문서
부상
처리
그렇
유전
시도
1991
##젝트
네덜
북한
네덜란드
투표
가리킨다
아마
논란
기사
이해
챔피언
편성
가문
원인
어려
수준
어야
186
용어
제한
187
원자
나무
70
##ul
##im
동맹
주인
하계
점령
통일
고자
##아들
안정
제조
아프리카
학자
려고
행사
장치
알려진
불구
당하
가정
세대
시험
1993
통신
알렉
언론
길이
통치
장군
베트남
책임
준비
성적
80
불교
은퇴
들어가
분포
프로젝트
##광역시
뛰어
##일랜드
##메달
방문
고속
경험
본선
그림
야마
정확
사진
지진
사령
개봉
정리
요리
일종
통과
구분
다면
1988
서식
해석
나타나
광주
병원
##em
제안
올랐
평화
신문
36
비해
45
주제
프레
##나무
런던
1960
생물
슈퍼
거두
정권
만나
서부
공립
KBS
##머지
나머지
총리
만화
드러
왕조
라디오
1989
##인트
발달
##스턴
그런
정상
경쟁
수용
부여
33
영역
려는
완전히
오르
인데
대로
##웨이
부정
##리트
##라인
노력
파괴
종합
부인
아직
추진
방어
소재
경계
훈련
경영
신경
회장
##스로
동부
연맹
##톨릭
접근
인식
레코드
번호
인터넷
폐지
입장
경기장
여겨
도서
장애
미사
##레일
법률
기여
일제
삼성
철학
가르
사라
아시
보도
##og
UE
미술
외교
300
이곳
제주
영토
신라
이듬
널리
무기
요청
반면
복귀
식민
등록
금지
나온
표기
무대
움직
트리
자주
노르
UEFA
민주당
##로나
지도자
다리
화학
차트
##st
투수
검사
##ap
이듬해
가톨릭
행성
스웨
박물
연구소
세워
##모토
마찬
마찬가지
오래
상호
오른
무역
##토리
거부
아서
주의
케이
은행
##부르크
##ut
아일랜드
스튜
38
에이
캐릭
묘사
마이크
국회의원
지난
업무
오스
##ie
##and
보수
수학
기초
조각
##특별
##요일
정식
해결
받아들
바탕
실제로
이스
이라고
박사
유로
강원
의식
득점
스스로
전해
아카
공작
##시코
바다
뉴스
##임스
표시
오브
성격
필리
중간
스웨덴
식물
발사
결성
기구
여행
##워드
임시
근처
디지
1987
캐릭터
오스트리아
소리
장소
윌리
지리
더불
다수
뮤직
파일
지대
당했
박물관
여름
출생
유형
히로
소프트웨어
단순
유니
브라질
감소
그린
1986
패배
총선
차원
34
활용
관측
죽음
오사
초대
집합
카드
위험
##NA
순위
정치인
스코
강력
제시
1950
안전
그대로
##ard
생성
습니다
밝혀
일정
48
90
회원
관광
기계
계열
##워크
##트로
1984
기후
라인
##ess
찾아
인사
협력
중단
권력
##트리
이외
외부
이렇
시행
바뀌
투자
코드
##ine
다카
##버트
후쿠
##소년
단어
반란
##니스
윈도
##가와
##베이
번역
도착
네트
내각
##주시
로써
##레일리아
가져
다만
##ion
##50
형제
발행
카이
지적
마사
나중
연장
후기
기획
유대
먼저
하루
사이트
아무
만큼
여객
1985
##티아
and
지하철
극장
연극
기자
전시
나타내
녹음
##나이
위기
##간다
상업
달성
수많
특성
개국
공장
1945
쓰이
디지털
##ab
소개
보유
측정
윌리엄
떠나
보존
해안
상징
태평
조성
근거
본부
특수
37
오스트레일리아
스키
단위
멕시코
Al
이슬
체포
수사
크로
##무원
##igh
귀족
세상
##가리
전달
유리
전략
포르투
대응
지식
미래
제기
확대
아키
파견
시티
##회사
세르
완성
범죄
##지션
1982
권리
주어
영상
양식
학위
##아시아
관찰
벌어
천황
촬영
성립
지상
동생
42
##ell
1983
따른
이하
개통
피아
바꾸
채널
2022
전환
설정
##전히
통하
이주
아내
39
소수
##모리
생명
##ak
식민지
성우
농업
원소
올리
종목
##ity
64
체결
보였
경상북도
당선
코치
세웠
스티
계승
알렉산
근무
##배우
개정
감염
경상남도
직후
주식
몇몇
수비
타이틀
도서관
##디아
종료
공급
즉위
밀도
이집
이렇게
##스티
승격
이집트
자본
시청
국왕
홍콩
##특별시
지위
판단
정착
시위
서울특별시
de
미군
MBC
41
국경
II
음식
수정
네트워크
은하
대륙
합류
다루
건강
사회주의
결승전
계산
의견
해외
##ang
개선
엘리
으므로
취임
##est
바이러스
교체
사우
제정
부른다
##ber
동계
비용
문화재
얼마
우크
##ud
##ist
##스카
1981
주인공
충돌
제거
부모
가격
주목
미사일
거대
##교회
원정
제임스
청년
장기
측면
##오카
심리
##ys
소장
##베르
400
베네
##러운
강한
##라도
이슬람
못한
보냈
Th
고양
##ne
만드
신학
자격
예수
통제
전차
1979
미디어
집중
이래
블랙
##리포
스튜디오
Re
본관
##니어
184
궤도
인근
아우
공부
자원
인수
신호
다니
음력
에드
여전히
세이
몽골
비밀
사후
이란
작성
제목
##ue
군인
라운드
지점
명예
최소
##ill
1972
##티나
An
포르투갈
물론
이번
모리
##피아
환자
증명
##ip
본래
합병
계기
너무
공군
43
가입
##드로
플로
엔터
학문
홈런
남북
저항
마치
1973
오후
떨어진
가까운
##ers
윈도우
전라남도
나누
전사
시내
##스키
광고
클라
허용
소송
약간
강조
185
유도
옮겨
##ub
울산
천문
입학
겨울
편집
금융
표면
##백질
헝가리
질량
오사카
학년
비트
##all
나카
실행
노동자
성인
으면서
일어난
사례
##tic
터미
카운
인한
180
변호
재정
가스
카르
명단
고전
둘러
##어나
병력
기회
태평양
라이브
민간
전반
##art
통계
각종
바람
포지션
의료
가리키
##도로
마쓰
양자
보고
55
캘리포
##아가
준다
충분
해방
1974
혐의
종종
국방
##동안
병사
만약
범위
##철도
양성
##CA
진화
나왔
스타일
루이
터미널
게이
전역
유엔
후지
캘리포니아
체육
마리아
수입
논문
에피
건너
##마크
44
강원도
간주
1978
1976
무장
공공
단백질
붕괴
미치
현실
##소리
원칙
증거
47
동료
등급
계급
인디
이루어져
이미지
분자
오리
재산
가졌
토지
종이
무렵
##uc
승인
아라
온도
전력
강제
도중
조치
잡지
꼬리
위협
1968
드래
역대
1971
##테르
항상
시킨
신화
##바이
##마스
대수
마련
##낸다
183
지내
##아프리카
전개
##our
근대
회복
1975
태풍
불린다
가로
46
대학원
임무
아나
회전
##로드
재직
핀란드
##av
다섯
그해
st
토론
규칙
##보드
1969
업체
의학
##타인
모스크
이스라
군주
출발
De
갖추
불가
51
세종
거래
##주교
스파
위원장
위성
##고기
적극
##리스트
##ong
공주
확보
수단
비율
클래
아시안
##se
채택
##키아
그곳
선수단
합의
이스라엘
수립
##고리
52
75
CD
폭발
구축
Le
그래서
충청남도
가사
공업
성질
##라노
교사
불러
장비
라틴
전선
대대
스피
남동
##ran
점차
필리핀
##리히
시인
투어
선거구
아랍
인하
전하
공산당
일원
카메
기대
침공
스리
얼굴
179
그려
기억
LG
군단
1963
1977
남편
##if
강의
##누스
부근
##레이드
경향
##소드
##ight
##ph
대기
장면
아주
매년
만족
효소
중심지
이제
감정
확실
##반도
##데미
청소년
서양
아파
불렀
고구
보장
대형
라면
해체
기지
스카
사항
플랫
상하
아메리카
아름
알리
쓰인다
조합
대장
##FC
장식
##트라
##nt
빠르
150
소년
Ne
스케
초반
1964
경주
어떻
##오스
1948
항성
##우드
1920
1940
수출
라며
모르
##네시아
##요시
고종
나치
개편
##ge
공유
향상
54
수원
자금
아카데미
전설
##ore
브리
불과
앞두
에게서
선생
탑재
고용
##에르
##ice
버리
터키
호수
1930
##하라
코미
이승
##이크
일어났
##네스
Ar
53
브랜드
했었
열렸
솔로
성과
트랙
강점
베이스
애플
영화배우
181
해도
Un
##틀랜드
귀국
동음
복잡
차별
단일
헤이
1967
마드리
마크
떨어져
##일러
동의
아야
Mar
##오프
우선
살해
메이저
49
##다이
##ob
고문
판결
에피소드
선고
##레이션
온라인
##비드
##ry
예상
의장
1000
마드리드
전화
단지
줄거리
##를린
구체
삼국
세우
신앙
태어난
고정
독자
중세
##아메리카
의무
65
나폴
대립
지시
##리어
##카와
##ss
넘어
덴마크
확정
##이의
중화민국
1962
신설
알려졌
시각
청나라
##셔널
중반
동음이의
우수
집행
이끄
##ST
만주
평양
어린이
핵심
나와
##의회
오픈
주교
상품
의도
노예
탄생
광역시
자세
하늘
##운동
검찰
인조
육상
잠시
유전자
로버트
##싱턴
보병
1965
보안
시킬
호텔
보조
협상
##각형
공포
참석
고향
공학
재단
세운
56
Sh
이성
고구려
편입
하위
전용
##ain
통한
kg
1946
창설
중부
1966
주택
협정
권한
##ate
아르헨
공기
직원
운전
저장
사전
태어나
하드
##터리
순서
산맥
시킨다
##없이
박쥐
선조
왕위
대비
플라
의해서
훨씬
to
아미
암살
br
작곡가
갖춘
##사키
코미디
##ian
프란
법칙
함대
아스
##어들
아르헨티나
논리
스크
##퍼스
철도역
카운티
뛰어난
갈등
유적
카를
바라
이루어진
요한
대항
교토
노스
우스
보급
##룬다
이루어지
인상
터널
후손
나뉘
전후
US
레드
이익
##20
별도
저서
1949
1961
유학
##OS
명명
성당
##다리
정복
##무라
슬로
본인
글로
북서
잘못
북동
강점기
Com
본격
올렸
연고
관료
흔히
플레이어
오토
오른쪽
##ff
로드
에선
인권
워싱턴
심각
합성
조금
58
플레이오프
말기
원주
마이클
99
전혀
논쟁
변호사
금메달
장착
##문화
방출
웨스트
블루
지키
반복
활성
비난
베를린
수여
##세이
##퍼드
##원군
코스
생존
성경
왼쪽
태국
파크
베이징
현장
연관
원리
논의
해양
공무원
창조
신체
방면
오히
앞서
##ich
프라
모스크바
원작
에어
##정부
연산
인종
금속
디스
파라
구별
보컬
아침
##ly
어떻게
세인트
88
주기
반도
오랜
출마
물러
Be
##도르
57
##ord
요새
##시스
소식
복합
이어지
사법
##10
메시
법인
이민
건국
입자
##BO
피아노
건조
그레
저지
니콜
미니
도달
인공
돌아가
전라북도
미나
##듀서
프로듀서
인터뷰
헨리
##해졌
인류
강하
숫자
구속
공산주의
미터
스코틀랜드
형사
00
##미터
추측
일으키
공화
아사
교차
군수
서기
시점
무리
예산
창립
관점
노르웨이
##per
자이
SBS
영화제
##마트
##쿠라
효율
66
인정받
코로나
전철
투입
분쟁
작사
응용
사운드
운용
일치
절대
이치
흡수
오전
보스
사령관
속한다
##ok
인가
제어
항복
보험
600
노부
진다
1958
##ort
교류
투쟁
PC
산하
사태
니시
포도
라도
Sp
800
거절
다운
폴리
제출
해상
브레
소녀
각본
##젤레스
정체
성능
불렸
리스
의존
##서트
개시
신성
##데스
브루
견해
멸망
포기
##키스탄
내렸
##io
68
외국인
##비치
re
김정
한때
하우스
현역
마침
비록
63
160
소방
소스
직업
전공
제자
축제
수송
##산시
이기
연합군
##머스
오히려
고유
열리
##기에
##슬라
증상
한국어
1956
한자
중대
주위
히데
머물
편지
파트
집안
178
데이비드
자녀
주전
폭력
##ae
##일보
아름다
스미
질병
그라
목사
미드
정비
참고
Lo
취급
학습
62
159
전부
백작
계통
살인
포위
총독
여부
##나이티
항공기
불법
수술
도구
안타
화물
유나이티
생겨
어렵
조절
반영
명성
직전
붙여
취득
1944
1959
약속
지닌
##end
내리
출장
Con
수집
##AR
##ik
부활
경성
장악
지니
연료
Pro
활발
농민
##ld
##어스
##ER
헤르
대리
문헌
시리아
밖에
##라이나
61
##ON
베스트
변형
해산
해졌
후원
##리케
1947
통해서
들어갔
##에트
You
교환
콘서트
대화
경로
일대
59
##자기
모드
혼란
본사
무엇
선교
더라도
트랜
진보
보관
위반
하나님
##준다
먹이
현지
상당히
FA
출입
사령부
인도네시아
자라
##노스
구성원
분열
에도
여객철도
이른
이시
전문가
생기
천체
##바라
1941
개체
죽이
벨기에
장교
상승
SK
##다가
타이완
Se
##oh
고리
국장
스프
학부
정지
스토
##메리
건립
고도
국도
86
##ure
진입
##앤젤레스
로스앤젤레스
탄소
주식회사
롯데
방사
임대
주간
동원
He
임금
동성
포트
레스
화성
##ens
항구
프로세
페이
시카
관직
떠났
영향력
일으켰
유물
프리미
테러
기호
간단
대략
##릭스
절차
요코
이중
주관
캠퍼스
부장
98
정원
공동체
##에이
철수
##공항
공통
말레이
코르
1954
남서
본명
막부
##ment
IC
##하마
Me
리더
1939
허가
갈라
취하
트라
빠른
##이어
1952
##카이도
##ant
학술
전파
로운
부임
라이트
72
엑스
95
연재
재료
예측
탈출
보건
아테
그리스도
영업
요인
아파트
##타르
74
복무
카메라
득표
자살
사장
수리
장르
1919
동남
통상
이온
##정식
농구
마케
##브리
트로
서버
그런데
영입
식품
박정
##포르
알아
120
루이스
182
백제
국제공항
##로그
##크스
연출
십자
콘스탄
변환
##프리
학원
##iz
학회
##저우
상륙
유기
문장
김영
IS
가을
신분
조작
소비에트
거기
##ib
##ind
##병대
정기
가나
레오
기도
##ct
##바르
사유
1957
스러운
저작
73
아동
##천시
특이
주년
탈락
76
부부
광장
1955
감사
반발
코파
82
수소
진압
우크라
메인
1953
망명
청구
접하
##천군
예비
방지
그레이
##티브
개조
신청
##man
##더스
충청북도
서식지
체코
위상
제일
도전
다스
##페라
취소
시호
개신
도망
황금
##아버지
에르
한반도
77
당한
흐르
지낸
생태
임의
포로
수영
완료
동작
스토리
화면
호주
##iv
##성군
##AT
기하
발언
고양이
히트
67
이뤄
재위
##one
나타났
모여
화재
타임
##무부
압력
##AS
SS
누구
모아
선보
##ount
루트
실수
상원
승진
크리
##ith
85
판서
동기
창단
고지
분해
훗날
순환
메모리
아프
알렉산드
공정
학과
희망
스럽
민법
배출
알파
참전
방정식
지붕
177
연안
메이지
분명
모형
신인
채용
왕자
서구
비평
스탠
##qu
합격
우려
오프
비례
뿌리
생긴
무덤
시드
파르
장수
##드시
기상
##이치
전동
빠져
치렀
##문화재
DNA
한계
선전
보낸
1942
지급
방송국
출간
처형
천연
도쿠
플래
흑인
원년
유치
기체
물리학
기법
는가
불상
##먼트
96
로켓
찰스
녹색
##ov
분할
내전
독특
오스만
com
##수록
리처
나타난다
등지
독립운동
방해
물체
매일
주둔
##피스
##라이언
추산
클레
어떠
스마트
##인물
##라드
목소리
바둑
살아
테이
뮤지
리가
가구
반드시
71
성향
신뢰
전주
##질랜드
##투스
전형
##치아
전면
1943
##유럽
##iver
아리
뉴질랜드
최다
한정
계곡
맞이
달하
둘째
범주
제대로
아티
분기
진주
미국인
글자
700
된다는
카라
입니다
친일
판사
처벌
실질
수도원
움직임
인증
대법
별명
##사스
##ock
마르크
나갔
법정
풍부
해리
##IA
유행
악기
끝나
남겼
##ast
##리노
연간
모토
th
가상
노벨
##베스
싸움
자극
웨이
구현
84
엄청
추구
집권
##30
루스
명나라
##IV
단독
희생
마시
프라이
사냥
화산
확률
##디션
##TV
##우리
보물
인접
복지
파악
이승만
적절
임진
치러
통산
평등
오페라
향하
점점
1936
KBO
미야
무시
가시
이자
##민주
87
부사
세르비아
##텐츠
제이
##pe
둘러싸
레인
서원
타격
78
날개
접촉
여야
화석
향해
92
69
Am
끝난
##ect
개신교
태어났으며
명확
프린
홍보
간행
로봇
일본군
손자
구하
달라
새롭
##BA
의지
영웅
##일리
창원
안드로
97
재건
성분
여단
포켓
시카고
상위
혼합
개입
교향
싸우
일찍
임기
링크
마침내
포인트
사마
의혹
부진
마법
전원
확산
조종
드라이
서명
어도
사임
메리
문명
1951
사원
가와
의심
순수
빌보드
##은행
벡터
91
버렸
이룬다
출범
부하
##ory
Te
기기
무게
시사
분위
네이
보고서
Ro
속한
변수
##터스
재배
##르타
##방송
##메이
##ath
김일
순간
커뮤
저술
텍사스
충격
전신
진단
맞추
##버그
으려
1938
근본
폐쇄
발굴
중기
##ng
영지
연구원
방위
균형
안토
행렬
파워
악화
테스트
올려
##러리
이라크
승객
##사자
포스
커뮤니
##세포
복수
##au
사형
기둥
진정
등장인물
아트
대개
석유
프로그래
##거운
질환
##ust
나들
발음
일본인
대공
빼앗
완공
조별
사립
좌우
페르시아
과학자
느끼
양쪽
NH
##ood
##ond
갈색
고속도로
입법
회담
AT
탐사
편찬
뮤지컬
##ack
수석
81
학살
올해
앤드
나뉜
추천
더블
개막
다며
모임
바깥
여론
신자
에서부터
##시오
징역
##마니아
포항
##이너
나들목
경남
도요
매장
광복
리처드
on
다케
AFC
나아가
89
1937
##아티아
시조
크로아티아
##틀러
미쓰
액션
##학생
##레인
당초
이닝
사정
손상
출력
태도
나타낸다
그때
Sc
자전
밝히
심사
단편
가슴
사실상
##ide
그래픽
심장
함락
동명
무사
##ational
골든
흘러
##EC
오카
흐름
국무
포스트
수익
프리미어
##일스
공로
오랫
암호
공중
실현
##미야
마무
내셔널
1910
시마
한글
평론
당국
억제
도와
구원
바위
줄기
##연히
생물학
복원
후속
브라운
가진다
알프
가설
이와
교구
점수
1932
에드워드
감시
Ma
된다고
##스트라
기울
동해
등판
여왕
일식
화합
일상
화이트
지형
산화
분위기
가이
1935
가공
원형
어깨
멀리
권위
특별시
저녁
각지
음악가
매체
새겨
유산
약물
공헌
한다면
오랫동안
대선
대량
경전
비상
우라
FM
프랑크
블라
170
93
언제
침략
신고
AP
밝혀졌
안동
94
본질
오버
데스
예전
랜드
1914
164
합쳐
백성
스타디
떨어지
Su
정하
왕실
기온
##쿠스
독일군
기소
79
일시
타워
아이돌
소득
인용
##코스
1900
1918
고기
인쇄
역학
승부
신부
작동
심지
피부
확립
노출
라스
발발
후계
Wor
절반
긍정
사자
도마
복음
##tt
움직이
##숭이
##레옹
리버
혁신
바닥
동아
시상
1933
한국인
나폴레옹
피터
어디
Wh
연예
정차
##메리칸
계층
##레나
HD
01
기에
오이
넓이
##ive
하원
##sh
##tern
폭탄
백만
##조합
타자
받아들여
그렇게
고통
상관
알바
결론
보르
구글
부지
레알
정수
통화
##AN
라우
자식
잠수
면역
침입
101
업적
참조
예방
커버
축구단
##에른
동방
중력
DV
필수
잭슨
정해
가마
개설
162
골드
##타이
빅토
주최
태조
훈장
이혼
듯이
입력
돌아왔
광범
##마르
##ton
##토스
숙종
보상
모바
161
늘어
동양
##이센
홋카이도
##대부
사인
벗어나
176
##age
##ame
유한
OS
위대
##ial
##ric
산소
아웃
유고
1928
행복
환승
이어졌
와이
사제
관여
누르
158
다소
도덕
Co
민중
수요
일본어
급제
##aw
1924
1934
카스
대왕
지켜
어려운
근육
말레이시아
작위
벌였
야스
##ck
스타디움
테크
전직
펼쳐
무한
MS
국기
제사
프랑스어
병합
디아
##가락
선박
여겨진다
##너스
총회
루마니아
##tive
창작
포켓몬
##가니
대지
##ence
자이언
화장
위키
하인
아름다운
전남
타운
##드리히
개방
장남
##ID
##IN
##ace
디스크
호소
피하
리드
싱가
후쿠오카
싱가포르
메시지
##클리
지향
마무리
느낌
사우스
거듭
대성
인생
나뉜다
규제
비서
기리
##체스터
구매
세자
글로벌
Bo
심지어
모바일
프리드리히
탈퇴
좋아
타이거
불만
##ary
나온다
불안
콘스탄티
바이에른
태종
##리학
박정희
가량
##필더
바르셀
최후
미드필더
바르셀로나
여섯
피해자
##슬러
쿠데
##ire
분노
지사
상실
전투기
참모
140
황후
그만
부담
크로스
마스터
필드
검토
83
연습
평안
적합
센트
교리
##미르
메달
가담
##리나
벨라
스티븐
신사
해발
패션
어려움
My
소멸
조지아
김대
비치
프랭
실력
질문
일기
발레
크루
페이지
끝내
심판
광범위
본다
사무소
##AM
##lan
##구치
168
##친다
세트
지역구
가까이
천안
국군
김성
##직자
동서
닥터
두려
따로
올라가
##왜란
기동
설득
175
임진왜란
세리
시나
사우루스
도미
사도
도모
국정
156
방언
총장
옮겼
천주교
초점
Ph
##산화
쿠데타
EP
세부
천만
깊이
유통
09
불가리아
혼인
라틴어
음성
청주
는다는
조카
##ris
티베
재학
프로이센
남아프리카
클로
보여준다
1931
조상
폭격
##가시
라이프
부위
163
영양
미시
일련
속해
스미스
##rom
##나가
Bl
##ah
보살
이즈
오직
인원
##자치
졌으며
연설
엄청난
독일어
결의
110
멸종
실업
처분
전북
정조
빌리
즉시
게르
무료
수업
감각
알레
경제학
부친
왕비
##란색
Ad
모음
##데이
##슈타인
Col
상속
테마
막대
였을
요금
조차
주석
언덕
왕후
##BM
벌이
콘텐츠
##유산
08
타인
대책
승려
알고리
대우
주력
원주민
##시스코
가요
##민주당
##의정
Count
1929
블록
##자키
##바키아
아티스트
당나라
혈액
노트
사양
돌아와
토론토
근로
04
신장
영주
154
대체로
##DP
부산광역시
구입
조조
추방
후임
166
오가
##하여
맞서
발명
학사
##베르트
오키
용도
Joh
빌딩
157
김일성
아인
개별
창당
대만
발탁
선임
전당
사기
쓰여
아오
##ug
휴대
알고리즘
챔피언십
130
1923
우크라이나
코리아
아테네
사격
1925
1921
비스
DVD
##ont
선형
검색
일컫
##land
Love
재즈
##iss
##해서
Par
개성
주니어
언스
저자
Sch
정교회
손실
궁전
문신
아메리칸
이른다
1922
고시
단층
여우
서술
일체
강릉
분화
상인
최우
Man
이명
##ass
김종
al
시트
주소
##히로
개칭
##니즘
이내
상수
스탈
이웃
유효
유형문화재
Car
##오르
##펙트
부동
##리우스
전술
##구리
##어도
드래프트
수치
ch
시모
진영
##머리
We
석사
수호
자국
##OR
##pp
165
CP
접한다
미술관
고급
섬유
호흡
##주군
경북
운송
전동차
반사
게다가
소비자
미리
전송
##게이
급격
##바로
크라
안드
##ite
마르크스
완벽
만났
농촌
배포
독재
영조
152
연락
누스
선호
차단
##사이
##아내
파티
구멍
동북
물고기
##지사
그리스어
##하이
##IS
려면
물건
누리
타카
스프링
##제국
##닉스
촉진
취리히
사과
히틀러
칠레
고위
브로
진격
이스트
정류
로맨
소위
마틴
##생물
##로지
국적
익스
거짓
좌상
재개
사이드
고객
싱어
1926
개량
원수
미스
암컷
##son
각국
클리
백인
##총리
상역
칭호
##원경
New
킬로
성남
##AC
후계자
의문
경비
소형
주체
달려
소화
매치
렀다
곡선
05
Ex
노리
용인
글리
주문
ST
줄이
로렌
뮌헨
밀려
줄어들
마루
강전
흰색
지수
반지
자는
##베르크
동성애
167
가속
##벤트
클래식
##필드
아틀
1927
상주
오케
화려
갑자기
실천
07
##다란
극단
##티스
경사
##래프트
영구
기부
보편
안토니
지질
##ile
화폐
##브라
인디언
메탈
##동생
WW
돌려
집회
##비히
대법원
대사관
자산
139
##ies
##과이
수백
당대
베리
##코프
변하
사퇴
자매
구상
비행기
선포
엘리자
받아들이
자본주의
생겼
##ft
되돌
##리그
약칭
이념
수십
질서
이재
1917
프로그래밍
안쪽
프로토
티베트
##무르
도쿠가와
간다
신도
판타
##ase
선로
찬성
당원
스톤
##센트
1912
콜로
와서
원시
총재
사망자
베르크
전망
화합물
##ivers
증언
이마
라트
탄압
JR
개명
세로
시내버스
내세
##에도
덧붙
영원
이른바
진학
##orm
151
중추
페리
리스트
발간
캘리포니아주
##독부
cod
##저스
당신
리아
마주
운항
프랑스군
CO
Cl
대칭
지불
법학
트레이드
벌어진
힙합
꾸준
다다
축소
##런스
##ere
나이트
돌파
유발
당해
1907
동화
파키스탄
AC
부서
06
러브
##어로
쿠바
##olog
사카
추기
피트
##여서
##ound
이벤트
항의
댄스
전적
174
Gr
양산
허락
충분히
습격
올스타
##제르
연평
##int
##무늬
회로
##다수
타율
##베리아
코어
존스
콜롬
##슬링
히어로
##여금
베네치아
멀티
투스
단순히
토마스
아프가니
실내
##드라
북미
오류
느냐
지중
우에
종사
아이스
클래스
남녀
도마뱀
노동당
pro
시신
시계
남기
내놓
##즈니
유대인
소문
거치
진실
요코하마
항공사
약화
250
메트로
이수
##ES
메르
야당
개척
액체
합동
가깝
놀이
화제
그래프
145
##레아
개장
##ost
SC
##추어
페이스
1908
소집
밀리
정통
##페이스
격파
재생
##ung
##리다
스테이션
키스
혼자
동메달
경고
트랜스
900
강남
목성
World
해설
엄격
갤럭
155
주일
아프가니스탄
무용
일으켜
추기경
배열
은메달
포드
해제
세워졌
스케이
조항
Br
고개
유키
추적
서방
대동
##뜨리
드리
연령
돌아온
히로시마
필립
##레오
동인
갤럭시
##데르
합니다
Is
입대
카리
힘들
영감
체험
조선총
강도
부속
공신
다큐
##투아
철거
조선총독부
KT
들어오
원자력
구로
유배
잠수함
형상
1905
사막
##사전
##tem
농장
이행
##티오
##ann
1906
가난
법안
산지
스카이
철학자
돌아오
간격
중동
치르
##해군
##돌프
구사
군부
미만
정확히
동경
세월
County
구름
장로
합리
지표
발전소
안드로이드
스크린
사찰
직무
흔적
레닌
##레이크
모노
중성
심리학
코너
평면
판정
재판소
복사
분산
으니
발렌
조기
지바
유아
재능
테르
##sp
드물
입구
##아르
나선
아비
03
토너
수컷
표본
회색
##야스
자이언츠
##공사
##amp
코믹
악장
재임
무력
강요
보스턴
전한
토대
02
전제
윤리
그럼
부작
잠재
주재
##ach
마그
못한다
##유키
간부
대원
인치
##성기
손해
표지
153
쓰였
양국
고교
##둥이
공룡
AM
##ED
장점
로즈
식량
UN
모험
탄핵
히가시
레지
##ick
아마추어
평론가
대가
##ula
Pr
르네
세금
##밀리
바이올
국방부
늑대
의정부
카자
타입
설치류
광산
동굴
봉기
부호
172
교향곡
성종
John
걸친
국토
독점
편의
장례
하여금
안내
##az
##도사
인민군
스탈린
##테스
토너먼트
대승
##세대
주어졌
박스
본토
##위대
구리
이정
##공업
할아버지
성서
오염
곤충
노인
도메
모로
분교
동구
##수량
정면
비즈
사무실
코트
하와
증권
석방
레이블
건담
선물
중지
맨체스터
필라
중종
번지
초상
세조
자랑
계수
##ep
146
파트너
제네
##les
북서쪽
고고
항해
모자
##우치
중립
첫째
캠프
일단
##ier
##ical
관객
171
레벨
풍속
##시스트
매니
우드
행적
함경
성씨
지칭
칼리지
파울
밀라노
##베리
베른
열매
##교육
동지
##사르
마일
북아메리카
김해
중계
##나르
그리하여
마감
아르메
SM
대다수
폭풍
자치구
강등
동반
##IC
명시
미카
토착
기생
마저
협약
주자
##ern
나섰
종전
소요
진동
자유주의
한성
행하
##bert
Ge
##VP
초청
파운드
아르메니아
부처
현존
구미
##키퍼
관계자
고조
매주
역전
진술
골키퍼
명사
새벽
##힌다
동일본
부드
고분
##애나
##페인
SN
부품
##니스트
1904
접속
##ala
일환
토머스
상대식
놀라
IP
베토
준우
149
##이즈
경유
패턴
쿠스
오리지
##베이스
일곱
남극
존슨
하사
칼리
임신
경찰서
아과
##튜브
특별히
개찰
덕분
##프라
##타카
수반
버지
특허
청동
##안군
##슬리
문법
하버
##미아
변동
성명
어워드
착용
유튜브
파생
##즈키
비틀
삼각
타점
공국
닌텐
닌텐도
연호
고르
교도
트라이
##고속
드래곤
모터
몬테
수직
일자
감옥
거점
벼슬
단장
수명
놓여
웨일스
훌륭
기관차
플로리다
제약
프레임
수비수
뚜렷
배급
##클린
codice
인터페이스
대한제국
색상
약탈
영혼
Or
헤드
대결
휘하
##ction
적응
비중
##마이
살아남
or
시게
유력
##일본
시정
출산
지휘관
남동쪽
새끼
원조
집필
스트라이
Go
도호
리치
지부
네이션
정류장
그러므로
트레이
다이묘
대변
베타
사토
어원
주류
Ed
사관
위안
펼쳤
후퇴
##널드
디오
홀로
HIV
이어서
저널
그랜드
##플레이
베토벤
북동쪽
빨간
##old
##ous
어두
극복
압축
거느
적어도
마스
삭제
##ime
주거
##프란
##ET
##me
169
##슬라비아
유고슬라비아
준우승
돼지
배웠
페루
원장
타원
우루
서적
지연
사신
좌파
##생활
목숨
오리지널
교차로
물려
와카
Univers
##야수
연상
예외
소설가
플레
조문
공세
요원
해협
복구
147
##ign
모니
##ear
AS
ex
##ix
기병
의석
샤를
크레
##멘트
##보이
무늬
케이블
압도
무릎
커피
크림
필름
금강
라마
성직자
목포
##카스
가끔
평생
##크래프트
##다는
인천광역시
연계
운동가
블라디
납치
도어
킬로미터
지자
삼각형
##눅스
유용
장갑
##AP
##타운
조화
스케이팅
규슈
지중해
김대중
구마
비하
리눅스
는다고
비전
광역
##라이터
라이온
탐험
##나카
김구
동사
똑같
##몬드
##lo
입사
수장
##지마
##IT
알렉산더
미분
변신
무너
커뮤니티
La
소니
이토
선교사
과도
항목
교역
진도
망원경
음모
##오리
과일
북극
화가
부유
수지
아기
대조
수상자
아크
커다란
ar
##산물
##럼비아
##ome
##레드
추락
트럼
SF
발휘
유역
##느님
빠지
산타
영광
유성
쇠퇴
하느님
프로세서
BBC
En
포크
교과
에스파
모듈
토르
노비
##대문
관리자
가미
삽입
앨런
1896
144
데리
때로
1911
남아메리카
WWE
141
버지니아
연소
중구
고서
모래
민속
고안
산악
##키스
##멘터리
서인
통로
비평가
##ish
아가
리듬
봉해졌
##스팅
염색
국민당
ᄒᆞ
바오
자책
디즈니
마카
정서
침해
판타지
El
리투아
설비
리투아니아
시에
내장
여인
최상
매각
퍼시
##사관
무라
105
패러
포유
돌아갔
건축물
채권
사촌
랭킹
직위
결심
플루
기압
##PS
추대
출구
##슬로
기갑
빅토리아
직선
부탁
일어난다
송라이터
시아
기하학
미나미
체인
소재지
하와이
우르
##up
불화
쓰러
황태
PD
인력
제주도
왕가
중시
다큐멘터리
이종
트럭
##엘라
박근
왕립
무산
증기
호르
그럼에도
유가
각자
요미
엘리자베스
토니
남서쪽
동아시아
상처
임상
##ron
사당
폐기
##도니아
사이클
남겨
콩고
##ree
대안
드러나
간섭
옹호
태자
It
연평균
합계
공격수
우익
나서
다녔
단행
이조
전승
운반
스마트폰
관하
철저
몸무
무선
쇼군
출현
몸무게
103
출판사
##운서
##yn
##하르트
자전거
아나운서
ne
안양
조명
스페셜
##OC
##inc
데려
적색
유비
##결승
과장
레이스
예술가
데이터베이스
모시
엄마
트윈
넘겨
대행
봉사
유입
##ma
가톨릭교회
보좌
선제
##ool
안보
에릭
기아
PS
무인
야생
사거리
진흥
쿠르
1909
토벌
할리
타마
최우수
상무
아세
##행성
가해
125
상세
번식
이날
##란다
##양군
가쓰
올린
##런트
전향
##무네
전작
All
단종
묘지
주한
투구
호조
아이디어
##프란시스코
배상
원로
다양체
##란트
148
루트비히
기름
샌프란시스코
실점
글씨
##스토
스틸
연금
복제
아울
외계
향토
디자이너
##다이라
NHK
스펙트
시상식
미네
목격
유닛
And
맞춰
버그
색깔
DS
무신
스피드
##트랙
##ina
알라
입문
창간
##세스
##주곡
관중
서브
No
유인
한화
스펙트럼
수감
노무
비아
탑승
행해
종로
##ey
사라지
하천
마라
프랜
도심
운명
##ium
##영상
자바
부동산
127
그려져
an
사료
옮기
주파
시집
진지
오케스트라
유신
번주
##리케이션
Mus
도리
목조
미얀
108
128
시외
역과
##부사
입증
품질
##로프
문화유산
연주자
MP
단선
주말
##orn
DJ
충남
##OM
138
스와
136
종족
##ps
##스티벌
주사
##어트
오타
이오
들어서
페스티벌
비즈니스
드림
바흐
선사
자문
농도
브라이언
재무
문인
##다니
장사
##AD
1913
##ose
소나
자회사
수수
반환
민족주의
말라
상영
점성
135
구장
폭스
분배
렌즈
문재
용기
##로운
기차
##브스
박근혜
사르
육성
카페
##yl
이루어진다
전염
흥미
크리스토
주의자
##가타
##ance
도메인
들여
셋째
협의회
배제
지름
특급
어항
##즈카
##총장
리얼
지자체
윤치
세워진
중국어
상하이
Gre
아무런
모집
이리
정계
직장
기종
신비
디비
급속
트레
대교
편곡
##긴다
스승
정사
호남
정자
수천
##eth
On
##카르
##길이
##ale
긴급
나미
별로
융합
꾸준히
무관
초래
분지
기타리스트
밀접
오디션
거둔
102
노조
##라트
명문
1915
호환
연고지
급행
마케도니아
##가스
나폴리
하트
칭하
예능
회원국
무슬
선진
해진
가르치
바이올린
Tr
좌익
하드웨어
아베
파동
부시
석조
여서
콜롬비아
겨우
비단
얼음
SP
차관
푸른
##iel
센트럴
MC
낸다
동전
##마치
되찾
의병
늘어나
##루살
##디스
니아
##들리
무슬림
주립
협의
##루살렘
서북
완화
지휘자
알바니아
게시
구동
##랑크
니스
##어리
그랑
몸길이
후쿠시마
내륙
##GC
##페이지
간접
콘스탄티노
동영상
1895
##악기
1500
라이벌
배정
##ork
스트리트
동치
세균
일행
이어져
##TC
거친
방안
로맨스
모순
피스
행정부
과제
##데이트
여신
##스케
##랑이
그쳤
부리
두산
부패
업데이트
##아리
보통학교
마쳤
일으킨
여동생
##다른
##보살
##시온
be
##gr
가게
##회의
##로디
##lic
두드
신임
압박
향년
개수
미스터
##우옌
머물렀
홈페이지
기재
고립
원산
준결승
##트롤
기념물
Op
일요일
정교
마케팅
도르
곧바로
당사자
조류
##own
신용
옛날
인텔
173
자치체
전해진다
다이아
권고
스쿨
기점
사면
예언
포맷
예루살렘
##ild
계단
발효
묘소
좌석
현황
개발자
펼치
교전
학파
환상
희극
북동부
오다
스릴
심하
합작
##모니
왕족
##하시
백신
인자
지각
##커스
제후
##ley
아즈
파나
히스
조선인
수면
플라스
기용
쓴다
##tor
걸리
우지
현종
137
드러내
요미우리
보전
사직
보드
벨라루스
##리티
스테이지
자사
카자흐
사로
이지
매개
후자
Fran
나타난
애플리케이션
부수
##EN
걸려
사사
브라우
십자군
식별
증후
관장
살펴
가득
중독
##식물
뱅크
##페이
체육관
가하
상소
한나라
에스토
상임
##때로
한나라당
리오
##문학
##ystem
##ai
Comp
##oth
서일본
시달
장편
하이드
용량
이글
차체
문제점
하마
아도
월간
토크
평소
훼손
##동물
맥스
야기
역명
##경기
시라
우즈
연애
집계
할당
문과
##킨스
##라비아
##ons
크리스티
Intern
주어진
선보였
Pla
붙잡
공용
때때로
##폴리스
##are
사범
식사
##IM
두려워
아틀레
Ac
지주
##레이터
빌헬
자마
143
용산
형법
힌두
##자와
##일드
베이스볼
착륙
신하
만난
에스토니아
마리오
연구자
선두
1916
응우옌
동남아시아
부흥
투명
바그
스콧
충성
메타
로프
##IP
마쓰다이라
증후군
예배
##att
미얀마
DC
교섭
강수량
대령
신전
##아지
##토미
##조선
MVP
점유
부통령
피에르
하우
좋아하
5000
테오
##나와
로빈
저택
혜성
##수아
##으므로
요크
##ola
사명
와인
##리크
119
바티
비잔
##Hz
규격
의거
##카드
##잡이
판매량
자면
조국
##oph
관습
마운
메디
상상
응답
전지
퍼져
성공회
##urn
정벌
취약
친정
김동
서열
서경
이에
참가자
게이트
공과
대답
최신
히라
서울시
사라졌
몰락
111
자율
중도
106
환원
피렌
시드니
하노
##ake
로고
사바
항일
끼리
한양
##츠키
##부인
카시
관광객
디비전
상류
주머니
책봉
프로세스
번뇌
스릴러
고원
대단
서독
파스
##러미
던지
충족
조용
비로
자손
노동조합
통행
지지자
소금
좌표
해임
##트니
싸웠
부자
들어간
메가
아이디
빨리
인과
##ox
거슬러
디젤
얼마나
이슬람교
급진
기단
알렸
##ML
##eric
호평
##루미
벌어지
빌헬름
##수수
저기
믿음
테일러
나리
받침
GT
테스
마오
사다
해인
명종
##che
귀환
카타
##가루
아리스
악마
컬럼비아
팽창
피렌체
배구
주행
검증
##스부르크
벌어졌
가질
루터
##ark
무효
실용
오렌
친선
소송법
석탄
친척
래퍼
와중
존경
카나
IT
쇼핑
애국
전이
이슈
측근
나열
미하
배틀
아마도
상부
위주
이력
세례
이노
##ts
천문학
흥행
##Pa
회수
석탑
수학자
시체
내내
##예프
산림
외무
일렉
CC
##전자
가라
##MS
3000
성전
뛰어나
마산
중점
행진
심한
142
경선
창업
##메르
노무현
연수
공전
붙이
##enn
University
CE
지분
진상
통칭
104
소총
수신
우주선
제트
학명
관념
루수
Bla
강연
발현
##팩트
일관
남양
드럼
비극
##외선
근로자
발족
카트
금성
복소
적대
전두
최적
##균관
사리
여수
컨트롤
매사
유출
착수
토리
폴리스
소닉
구제
발트
##tit
여덟
전임
전진
포장
피난
전류
지장
##II
아미노
식당
제휴
천사
감지
별개
시립
하버드
거인
고베
아울러
여진
수산
신칸
아종
##제프
이명박
국어
윌슨
클린
아우구
보충
아케
가즈
장인
다룬
조르
##ke
##서양
##창기
됐으며
브래
Ab
권유
버튼
부도
주권
Qu
텍스트
프로토콜
오클
오디오
독립운동가
점프
소지
아바
##ude
생일
해전
두드러
##AL
성벽
우정
##ism
강사
김용
법령
ISO
마찰
##tis
눈물
전장
참판
대외
위장
##네이
##oll
매력
제의
노드
리메
키프
##혁명
For
조언
##집합
전문학교
비틀즈
캠페인
평행
초연
##라이트
디스플레이
부착
##산군
Ste
고사
약한
골프
##mer
보스니아
긴장
유년
과목
동등
회계
떨어졌
규명
##마사
청사
호프
사물
예시
전도
주파수
부르크
카탈
Ser
박영
인형
허브
##상스
드라이브
연인
109
스타크래프트
계절
기상청
관현
엔지
신칸센
공인
단점
성균관
중재
찾아가
sp
따위
떠난
##퍼니
친왕
한강
##우라
저기압
인산
크리스마스
연도
원나라
해역
##리언
마천
자책점
##oci
챌린
##플러
연루
고무
우편
센서
회화
##받침
고가
관찰사
밀양
법무
쇼트
술탄
117
레이다
사가
에이스
트위
Mo
장성
콜라
합법
CH
일화
##수엘라
담배
패스
어드
유소년
초창기
##델피아
필라델피아
속성
페어
112
진리
타르
마친
정찰
##포스
개업
이원
Tra
상자
스파이
남인
##토시
나고
마츠
##모어
TH
레이저
난민
달아
추모
##노리
손가락
시즈
제곱
물러나
득표율
호칭
다중
유해
1894
NC
근접
내지
청와
짜리
들어와
베네수엘라
성모
영장
이복
준공
##ene
##row
슬라
TO
병역
##기니
북서부
스터
협동
에디
퇴각
알코
제작자
게재
반경
126
실종
애틀
어릴
청와대
사용자
동위
##다드
##co
단기
매출
향한
##소스
하부
퍼시픽
이순
프로게이
프로게이머
118
사지
토요일
승차
##문관
프랭크
못해
서서
사이버
야간
저명
is
금액
오렌지
성별
##iam
##노부
단원
생명체
르네상스
121
사슬
패전
호세
##자스
개원
없애
##노프
수동
이영
아군
건축가
AR
기금
팔레스
어두운
sc
기장
미쳤
시외버스
가르침
나고야
섭취
전례
Will
인격
##악단
사로잡
##트릭
나가사키
궁정
컬러
트루
유언
중장
채무
최저
향후
복장
##석기
별자리
캄보
투르
##와라
이글스
민영
승무원
옥스
자발
출처
##시티
마비
반격
청장
항공모
하인리히
양상
외곽
자고
품종
중국인
수평
슈트
고체
지목
특유
보잉
한데
여의
포괄
아사히
즐기
곳곳
포수
앙리
후일
회견
스페인어
공직
레전
이이
이인
서해
해운
각기
미주
##de
겸임
정밀
직책
볼리
선원
##대군
머신
민사
블루스
치세
##그라드
기수
박탈
hPa
언론인
공략
유격
조리
치아
##산리
##어져
취재
격렬
탐지
히데요시
안티
엔지니어
##행위
마인
애틀랜
EC
어스
프레스
홍수
1890
스핀
하얀
##gh
지나가
모스
민국
가계
교단
##EE
숭배
화살
123
슬로바키아
모으
코프
시청자
오키나와
레바
착공
##원숭이
날짜
세미
순조
최소한
성주
##라미
III
le
순천
##서리
##ata
토마
107
부재
일족
##리즘
##라리
##구장
CS
차남
피고
시오
입체
통근
캐스팅
상대방
윌리엄스
사우디아
생식
수성
리어
이바
##ife
유교
후한
출입구
팔레스타인
대주교
후안
자유당
영동
세션
진나라
튀르
언더
##ven
부과
어업
북위
이사장
다운로드
마하
유니폼
##고속도로
##티움
돌연
간호
광해군
동년
##화점
미즈
항공모함
여파
##ble
##ink
수용체
각본가
CPU
대니
등재
별칭
수렴
##의자
col
정말
추격
교장
대위
케네
Cla
고래
보리
석가
여주
루프
NBA
노란색
정점
상장
공자
명목
주차
##칠리아
1902
물러났
서서히
사절
##먼드
##어지
##MA
자마자
서사
시공
##네스코
컴퍼니
##람회
이민자
요르
태생
##cy
113
포도주
네이버
안장
##루션
광년
끊임
촉구
1898
기다리
김태
연혁
총괄
124
동력
북구
##ii
방침
풍경
리메이크
캄보디아
테니스
일찍이
남한
동독
미소
승자
여래
##베이터
고발
물자
구조물
Ag
끌어
신세
존중
차기
일자리
김재
신규
주지사
따뜻
토스
##항공
남긴
트럼프
가져왔
##ward
외국어
제네바
에스파냐
척추
달린
운동장
스티브
사우디아라비아
라파
1901
낙선
암석
앞면
협주곡
115
대처
베어스
일생
시그
원자로
객관
발해
레전드
자민
지나치
유연
##산면
둥근
어요
전함
경보
그로
투르크
##라이더
유니버
##키지
무려
케이스
둘러싼
바실
##ream
데이비스
라트비아
명의
적자
조반
첨가
##그로
129
라이언
지혜
##ress
개찰구
갑작
대역
부채
##ans
가르쳤
##선스
믹스
배터리
##유행
개관
원하
원고
조달
소실
##ius
이틀
카자흐스탄
##포트
굉장
버려
전대
추상
그랑프리
도호쿠
김진
##니치
우울
##크리트
##ta
이진
섭정
##11
유네스코
One
##리에
김영삼
에우
만세
진군
타이거즈
버린
입상
무죄
창시
##ise
##way
부천
북방
종결
한동안
세계관
전두환
김수
문양
지능
허리
강경
건의
바퀴
장난
그램
음원
주축
1899
114
교양
취지
알프스
기요
루시
##세츠
아폴
##사기
건너가
온천
추증
황해
라이선스
스페이스
매사추
계몽
관통
불명
영리
워너
##TA
트윈스
전성기
좌절
360
매사추세츠
Bar
피츠
사회학
다니엘
상담
네이션스
죽였
심의
충주
재미
##ames
수용소
침몰
134
도스
마약
통증
##창군
엘리베이터
동맥
분광
정치가
미토
바이오
결선
고령
명백
휴전
파이어
공민
Sou
비문
에버
##ult
1903
ro
소통
효력
International
무제
선구
에다
줄여서
Pe
여겼
총선거
CON
인플
##ash
Gu
치즈
탈환
평일
##말라
일어날
문재인
교외
모방
연패
충북
##내셔널
인터내셔널
카리브
대군
##ll
with
경부
발원
정렬
드라
##랑카
책임자
번영
중순
케네디
변이
##백과
기어
합창
소나타
신속
상당수
LP
나스
평야
후세
후대
##TS
나이지
지류
나이지리아
몬트리
베드
보완
의상
##ology
몬트리올
SE
함유
협조
송나라
##붙이
##가와현
해수
오빠
##무기
##푸스
장학
천문학자
언제나
유수
해병대
##어진
차이점
멈추
소환
자랐
중소
초과
To
서머
##기지
서울대
아이슬
Har
스러
양도
위임
항소
우루과이
##평군
Cor
할리우드
왜성
가벼
김포
당일
##ition
며칠
경과
난다
암시
고백
수령
체르
걱정
정무
정전
풋볼
##타마
오비
##바이잔
장려
전한다
중위
아이템
누적
인연
휴식
##글리
불편
오노
도왔
##시로
누군
에티오
추출
티스
패하
아이슬란드
에티오피아
나주
물리학자
htt
평범
시나리오
피에
반박
아제르
애덤
부른
원반
중의원
총대
탐구
##차례
##페르
남동부
Pa
##누엘
그루
쌍둥이
##sk
아제르바이잔
무상
삼진
신흥
신생
##도바
Her
공모
껍질
대포
신중
육지
지폐
청원
외교관
##태우
이어받
리버풀
Je
소매
테레
호기
신학자
실린
잡아
장미
총사
##벌레
든지
연세대
승점
콘크리트
창고
향교
무거운
수군
미상
서남
여지
##ye
기인
차종
풀려
표명
격투
패키지
중심부
아레나
탱크
매카
이어진다
개미
혈통
저하
초상화
Fe
문하
성숙
##케이션
자기장
RNA
로열
디비시온
관람
133
위키백과
나쁜
대제
쉬운
충전
CR
리비아
신기
진짜
한스
##선거
##제리
아미타
파업
신학교
해변
##야시
int
십자가
인재
마이너
##포구
남원
면허
법조
창건
충실
고인
링컨
##ail
오세
공의회
혈관
##니카
이사회
고수
쫓겨
##나리
##져서
기습
말리
그렸
신탁
태수
vs
의뢰
##블로
문학상
여겨졌
닛폰
배수
스튜어트
나트
도라
바치
선종
##und
배신
신념
양주
##주의자
넘어가
AD
고민
께서
바꿔
생전
지선
##리니
##OL
박해
원내
트래
1897
폐위
##시피
도주
시바
카이사르
더글
##스틴
레일
벗어
스파르타
중량
성취
하락
소유자
동문
산다
상서
이광
히메
##특별자치
음료
제주특별자치
제주특별자치도
느낀
다발
##온다
아드
공채
펑크
##치오
호랑이
##ute
바스
동당
둘레
특집
##ower
김상
역설
옵션
일러
Kore
분비
우연히
이식
방패
편리
효고
##개골
우세
천도
평택
브라우저
깨달
낭만
다녀
동래
전압
##AF
이케
출토
확진
보일
플랜
파장
아랍어
버린다
##타로
브라더스
Americ
바리
거느리
토모
낱말
분당
핸드
##ype
블라디미르
가면
##타나
프랑수아
AK
리틀
베스
쓰인
이세
##아이
명제
숨겨
일조
포격
해밀
지냈으며
다이아몬드
BC
실리
132
SD
아벨
##마쓰
가장자리
두루
리우스
목재
휴스턴
작센
롤링
동로
##rans
막내
돌리
열대
장거리
플라이
##베니아
결혼식
유로파
con
평의회
##토모
##릴라
교원
냉각
이를
조연
##데시
##하면
##공신
생산량
고치
부적
오피스
현금
##수리
워드
슬로베니아
써서
치열
대전광역시
황태자
시흥
영남
국사
후방
봉쇄
서정
##중국
우라늄
122
모니터
비잔티움
##바다
가마쿠라
알코올
##we
들어왔
스트레스
350
장안
##ual
1884
단식
유동
입지
라이온즈
바뀐
칼라
만남
실시간
원숭이
니콜라
업계
코무네
회고
SU
의약
제수
추세
시선
어휘
페르난
강과
내려가
광학
해소
경연
자아
##마드
##거진
바라보
노바
비시
어울
횟수
테이블
Can
시골
스톡
##pt
모른다
민회
병조
##더슨
Sm
다항
우루스
##프레스
급격히
기업인
개그
구이
환영
GP
퍼센트
할지
객체
염기
치명
IBM
관절
귀중
내외
플러스
GDP
축하
##래스카
증진
##고쿠
So
구호
순회
그날
병행
빠졌
샘플
축적
한성부
몰려
연쇄
##red
##베르토
##LS
두개골
산란
성운
삼국지
##리케인
실전
안성
요하
즈음
로이
사모
응원
##대신
##어버
겸하
고소
첼시
히사
##명사전
거북
허리케인
트위터
광물
묘역
오바
명령어
가짜
라이브러리
춘천
IM
서재
오오
한족
백색
##타고
##푸르트
나비
위탁
##itt
야구장
게르만
끌려
이소
제프
탈당
폭동
##위원
##out
드로
열정
중성자
동상
서진
오해
클라우드
바나
재현
##권자
페르디
남서부
바른
원했
이드
##시타
가동
도장
##브리지
##실록
##포드
감리
바닷
유죄
##비나
##바시
성체
##헤이
##은색
##ald
당주
여당
전념
한지
Char
위쪽
터치
호위
순교
시칠리아
규범
비자
얘기
택시
##박쥐
법제
입당
##tiv
나타낼
##ection
공단
마력
맥락
반감
##ode
되게
아부
야쿠
전했
##번스
요건
차장
한쪽
##양함
시초
후사
이빨
Don
다크
김기
설탕
잔류
##실베이
##실베이니아
보석
팔라
펜실베이니아
##수소
##oup
국소
백화점
누가
하워드
궁극
소셜
달했
모이
116
국무총리
최상위
이에야스
내린
##느러미
##ater
CF
거론
리프
노부나가
전라도
반도체
극동
도루
사쿠라
아홉
의의
적분
프로덕
약자
##보기
문화방송
##irl
내보
제갈
주역
해적
Ind
신주
실장
치러진
거제
동점
네스
단단
격퇴
리우
운하
춘추
주주
나눌
복선
파인
헤비
테이프
왜냐
##박스
CN
범인
토성
극히
마디
세라
포터
HT
바우
벌금
##차기
이산화
##fer
공산주의자
상공
##ank
Gen
##lex
극장판
빨간색
사육
한인
en
속했
청하
포럼
현저
##기업
창원시
리뷰
붙였
##회장
누군가
키르
레바논
뜨거운
상점
고고학
As
기질
몰리
##리안
구도
기적
보인
최악
너비
우유
분기점
키프로스
ID
매입
수습
평원
우위
견제
누나
무어
##산동
EU
육체
발라
신한
폭행
갑작스
신조
태권
가죽
로우
멜로디
몰아
War
다룬다
스캔
아담
카를로스
확신
매달
파이널
다스리
중추원
비르
중합
방송사
미라
실려
정한
##타주
관해서
레논
##인명사전
친일인명사전
코믹스
글루
상단
이윤
##eter
처녀
일리노
거행
적당
경관
카미
제독
##석탑
일리노이
침투
고성
빈곤
실체
대표작
Rec
비리
억압
횡단
##층석탑
히어로즈
Per
거울
상반
1871
미르
청춘
##승지
##란히
sh
결함
공습
지미
##곡리
공천
데모
##ins
희생자
날씨
미키
언니
이브
##승부
부제
부당
상용
을지
이긴
대학생
대웅
맥주
무지
박람회
아예
제재
##나스
모로코
드문
하프
##vel
요약
임용
세속
왜곡
직면
체스
흔한
비유
살리
증대
Live
뒷면
못할
시베리아
입원
허위
Day
이화
##규모
##무스
염색체
조세
크레이
##도리
관해
수색
신시
칭찬
##법인
태양계
나르
그동안
##그레이드
곡인
루이지
사헌
영의정
사업자
ac
게스트
##은이
te
업그레이드
힘입
통치자
IN
미세
##하키
감자
상표
이관
화해
조종사
GS
누이
주름
##bo
##ject
Res
브로드
성사
인체
필터
가군
프로덕션
##rist
##람쥐
블로그
탐색
##끼리
존속
고장
대피
미션
라오스
결코
공수
통영
알제리
마야
Ass
대의원
후궁
##HO
아인슈타인
데르
se
깨닫
브리지
수련
##타리오
황실
##na
##que
구릉
인문
받아들였
덧붙여
BS
오프닝
군청
시뮬
통틀
스트리
새겨져
별다른
신민
늘어났
왜냐하면
계정
소원
가루
메커
##uro
우승자
컴파
모았
1885
사헌부
김경
들어간다
할머니
##살이
##고래
1800
1880
익스프레스
##린스
##ini
근교
느껴
문구
연합회
개종
거쳤
양측
Black
협박
동국
자선
카우
캐시
근원
범유행
욕구
러시아어
Gl
뒤쪽
표적
선비
시어
펠리
힌두교
해고
헤라
교황청
분명히
KIA
지평
철회
시가
재선
##연합
##ica
라이너
가축
천장
카롤
##MI
소규모
##lect
몬스터
워터
동아일보
그냥
전자기
오라
la
공백
목판
빠진
매니저
공익
로그
캔자스
냉전
투옥
##브레
만성
제니
##스기
송시
##타니
전년
레온
수축
신약
이타
삼성전자
신선
요정
키우
원로원
Gra
대명
##ings
조부
타당
##대기
조선일보
김현
우호
진공
코스타
메커니즘
말씀
구절
##조부
교과서
심해
필리프
담긴
뒤집
떠올
과반
경찰청
경신
말년
사생활
상해
굉장히
성도
그만두
개교
케냐
공방
교정
보증
종착
##IG
Ins
제인
핑크
프랑크푸르트
일방
화장실
##먼스
경상도
줄무늬
치안
##레기
Dav
관세
주가
##ien
##form
야마토
CJ
크리스토퍼
공관
희곡
Time
구출
문예
하르
##렉스
구해
대폭
법무부
체크
National
상사
##의장
보트
##로이
##ger
마르티
파란색
독일인
Sa
부작용
디렉
승계
##단체
스칼
촉매
##치기
우즈베
감마
포병
##드르
양키스
힘든
오사카부
나눠
볼프
##러드
관구
빌려
성단
스즈키
왔으며
##able
친일파
살아가
외야수
피오
##프레
사이타마
고속도
AN
키보드
효종
팔리
##여래
1860
브뤼
왕복
자비
##LE
발렌시아
기다
봉건
이경
진급
체조
판본
아이오
탐사선
생체
우파
종속
##코딩
시위대
따른다
무승부
방화
부스
핵무기
1889
미노
퍼스
플랫폼
발리
##저지
ES
먼지
에미
토미
물리치
마블
만일
약력
외모
지침
##로우
##ana
싸이
온타리오
인명
뉴욕주
아카데미상
게이지
몰래
비주
##크라
##테르부르크
구스
즉각
##퍼런스
드러났
고산
발병
보위
##속기
생겨났
안토니오
##블리
주어지
부설
일가
초록
##타리
플래시
유치원
##지스
담겨
센티
##다지
빙하
컨셉
찾아볼
Part
강서
사본
제대
드라이버
물려받
부딪
성문
흔하
at
지출
학업
뉴저지
수법
내려오
그랜
극심
적도
220
커뮤니케이션
아랫
아리아
초월
이어진
Fl
알루미
용병
학계
웹툰
유저
자오
최대한
뒷받침
워크
##yc
##톨레
블랙홀
트로이
가드
구스타
붙인
해명
방사선
GO
공감
타케
스위치
쾌속
무성
예고
아래쪽
구축함
도청
풍자
##조건
un
방송인
PR
카디
일반인
리라
자택
탤런트
Rock
베니
항쟁
흔들
##롤라이나
1870
종로구
##ler
##셰비
요동
폭포
##하루
연합국
곤란
##갈색
AG
MB
부피
자음
드러머
바오로
제로
희귀
남미
우측
##슬로바키아
호른
##덩이
체코슬로바키아
미하일
그치
수분
영문
켈리
##ner
합스부르크
##마루
##바닥
게리
Colle
레즈
모친
최강
케임
##ution
##보르
이순신
des
둥지
사적
염증
화자
##oss
플라스틱
요르단
##미사
##츠크
기각
암흑
하동
보이스
패밀리
사상자
돌격
만료
미생물
소시
프론
숙청
토시
아키타
베네딕
이준
기증
러시
코시
##토르
바티칸
파산
Mag
웨스턴
가나가와현
삼층석탑
클라이
검찰청
퇴임
헬리
혼동
승부차기
둔다
이남
일컬
카카
타임스
System
혜택
##uck
기니
남구
빌라
도마뱀붙이
Wind
원전
증손
##아키
계열사
송시열
구와
티코
##히코
공민왕
각도
갈릴
태그
괴물
군정
남작
띤다
스크립
마운트
느꼈
정주
##축구
뉴턴
소관
앞쪽
토끼
극작
용이
단절
발급
징계
호르몬
원종
지옥
##파르
##12
들어온
간단히
Do
운수
##기스
##화물
개인전
##ike
NE
스폰
에밀
프란츠
나우
퇴적
패럴
##uk
동정
물품
채워
케빈
THE
갈래
대거
서신
설화
농림
Life
##브르
유라
로비
배후
외관
하비
사이토
반지름
Mc
와일드
정세
##쟁이
##샤바
자연수
School
독성
왕세
유방
제압
서초
평정
호출
금요일
내정
답변
러셀
레슬링
맥도
오크
중복
##교도
##테인
야마구치
크리스티안
날카
앵글
통보
##함수
알루미늄
관제
원천
##문트
공명
구경
뇌물
선행
그레고
미들
세이브
스리랑카
세비
저주
경찰관
복합체
질소
모나
생략
섹스
시코
커스
더니
비타
입국
터보
##닐라
JT
광둥
나올
진사
##포로
확실히
총독부
##줄기
USS
강간
군중
나눈
한테
##그래
천재
##그리
내주
늘리
토양
1600
아이스하키
지인
추론
##퀘어
Med
페니
그래미
국영
코카
##ᆞᆯ
오리콘
장례식
그릇
매매
모리스
축출
필사
##대원군
이탈리아어
그대
마스크
유체
카사
퍼지
##짓점
올라간다
의약품
꼭짓점
동행
선도
채소
피겨
##카미
##황후
Mon
결핍
니코
어렸
은데
정변
1868
비로소
날아
본문
알렉산드르
대부
무명
차가
헌정
##be
세이부
바깥쪽
대웅전
나노
러스
민감
사위
자크
##레타
표기법
극한
어류
##카가
예조
대서양
미루
밀집
푸르
##진군
부여받
##마이오스
중형
##ren
##우트
대변인
가옥
끌어들
##CC
마키
바빌
상응
에디션
월요일
##글라
사회당
##니까
재상
어려워
연예인
GN
옆면
이끈
조립
##파이어
스턴
코코
가신
공조
관음
달한다
연승
##ella
CM
겐지
어른
정적
지우
코끼리
해부
종점
취업
##사이드
가가
도카이
커널
##노미야
갱신
소모
엔딩
주부
어긋
이단
가벼운
pr
성폭
청주시
학기
##enter
안테
오쿠
아폴로
권총
대출
영산
포켓몬스터
설교
해밀턴
괴롭
동네
중산
점성술
아미노산
장벽
회상
챌린지
아치
젊은이
##IR
##ade
EX
걸렸
바꾼
페널
케임브리지
김규
서자
첨단
하치
등기
벽돌
총칭
화상
살펴보
개소
일으킬
아시카가
천문대
me
김지
대합
성리학
창출
체류
태극
헬기
##두리
##ott
우치
절단
##렉션
무스
원본
재혼
하리
혐오
##기념
미야기
병기
유진
잃어버
총사령
강희
화강
갈리아
막시
중생
##역학
LA
고트
면제
시네
컴백
특권
##시즘
##그라
##벨트
##ows
그레이트
무함
황족
격자
노이
악단
##아웃
단축
시가지
어미
울프
##틱스
제조업
고쳐
벨트
실망
##올라
기술자
조지프
본국
쿠니
준결승전
상트
신원
토요
NGC
기저
가야
공리
반해
역량
커지
##xt
##럴드
##ator
옹립
카즈
##천리
##타임
트리플
ph
검출
회관
##도스
권장
동형
카타르
##자르
1883
전방
미시시피
수확
전속
폭넓
연산자
간선
끼쳤
돌기
모모
산출
아산
##크로
아리스토
따온
청산
##hel
광주광역시
he
간토
실버
였음
우회
하단
##일으
불러일으
윤치호
##셰비키
공적
밝기
슈팅
전구
##카타
##텍처
##tif
아키텍처
Of
자르
부의장
포획
##ros
삿포로
서류
선배
시범
종래
##ert
민간인
소방서
난징
서유럽
소생
이현
패널
독서
양호
##지붕
김정일
William
덮여
리조
소말
주조
캐서
##ital
페르디난
로저
버드
복용
호모
##EL
##inal
검열
룩셈
의자
##구르
극대
마녀
적혀
찰리
룩셈부르크
Mac
초신
##GA
1888
광대
상금
프톨레
##아일랜드
기사단
프톨레마이오스
ad
구할
##ublic
Sk
임원
전위
슬라브
깃발
분수
사슴
양반
이겼
##MP
##변이
국내외
돌연변이
동조
루카
아돌프
옥스퍼드
효고현
##ave
##군다
고양시
##테르담
강변
노보
연봉
자작
차르
개화
불꽃
압둘
동성애자
말미
##모스
##폴리
##야마현
소수자
아마존
연이
##링턴
##부리
##ane
불신
헌신
1893
가브리
드레스
마우
숙주
요법
직경
광명
모서리
열도
브리튼
격차
고토
기슭
대패
##그레
거래소
개막전
대치
장기간
트로피
리터
빈도
##디나
들어갈
레이더
기숙
세바
히로시
다항식
뮤지션
부가
스텔
##타이드
스토어
세키
파이터
관광지
데카
보복
습지
초원
크롬
##히토
스퀘어
##교통
##토랑
지도부
마르코
레스토랑
폭격기
곡물
삼촌
어둠
채우
비행장
qu
패했
학대
형조
##레슬링
##anc
At
건륭
기분
이우
추첨
피신
##TP
사업가
소나무
##ull
예하
진료
##ax
##ony
동학
판례
농부
두께
따왔
방글라
왼손
##oid
영국인
1892
Robert
끊임없이
매카트니
방글라데시
다마
##ouse
CEO
Mic
던져
야시
우체
인질
종말
제국주의
##rop
거주지
리히
머무르
##ole
##니시
Music
로라
염소
##iti
지바현
Your
보헤
퇴역
##라기
##OD
땃쥐
정성
##산맥
사이타마현
갤러리
교대
시리
응시
프로레슬링
지식인
##CAF
피고인
Wal
부를
서민
카스티
퀘벡
##라이어
par
버마
서장
이태
일산
이용자
전염병
솔루션
스노
체중
패한
화력
살라
예명
홈구장
##yd
##고스
언어학
도요토미
조이
함정
##개미
##페테르부르크
1882
상트페테르부르크
남매
농경
위스
유닉스
인프라
포스터
아라비아
감행
작물
정동
회피
##방송공사
더글러스
갈수록
아브
##미트
Jo
세네
하고
##US
봉안
서문
##루냐
가까워
대성당
브란
상고
음향
임관
중령
히타
전시회
조수
스타리그
유대교
강동
다름
마가
카프
DM
감수
네오
컨트리
분량
아소
천하
팔레
프란체
사간
좌측
설립자
미네소
페널티
나갈
반군
##elf
기념비
각색
오를
제치
##충류
성지
콤팩트
토기
##캐롤라이나
Night
당한다
##펜하
마카오
Girl
고아
파우
Str
NAS
SL
데스크
푸에르
피치
김창
부회장
에콰
교통국
에콰도르
SA
석회
즐겨
기르
꼭대기
쓰촨
##나미
##루아
프레드
MHz
가역
니카
대손
입각
Star
울산광역시
공고
구형
북아프리카
##가르
##그룹
##chn
델타
매수
##벤처
##곡동
가환
이건
하차
어드벤처
##네시
##올로
취미
##테이션
연대기
마니
버클리
연꽃
입성
##쿠버
파이프
##ield
경작
발기
일렉트로
참의
교량
무로
발령
샌드
정화
교도소
Up
루타
영등
이병
##세기
##피어
240
공예
들이
##erm
가산
국보
글래
##처스
LC
##정리
공황
선동
소령
남동생
볼리비아
능선
원료
청소
구마모토
다나카
비석
정립
제리
알렉산드리아
무함마드
도사
막스
##ral
450
냄새
의결
표방
휴가
바르샤바
김민
타지
견인
산호
앨리스
원더
선거법
색채
정유
축물
##방울
대구광역시
도널드
박지
실재
클라크
광부
김제
잡혀
총대주교
시킴
느리
침체
탄도
##대장
거짓말
둥글
물가
실적
##부르
군함
전복
##ino
##omys
대두
옥수수
Eng
해진다
##다고
경제학자
인디애나
연산군
정해진
반전
바이킹
DD
루비
불린
##베트남
두꺼
쌓았
##테리아
더욱이
라그
##FL
분출
테라
가려
주된
##푸르
아이폰
##라이언트
스크립트
광저우
북경
올드
##나우
파라과이
가네
사카이
쓰레기
##브리아
수목
타우
Bro
High
실무
유령
클라이언트
마르틴
부드러운
모티브
직결
Ke
1200
131
후쿠시마현
가오
매트
속주
정문
호리
##UC
##ange
단면
Air
무슨
생생
조반니
달걀
밀란
잘라
청동기
브랜
시야
##OV
##니지
##any
러시아군
Super
중앙아시아
리더십
감안
닫힌
리만
정려
##파리
만주국
노태우
by
상가
상법
이성계
공용어
드레
입양
##지르
그다지
##act
니콜라이
라오
함부르크
진행자
일러스트
가도
양성자
복소수
르노
수년
자형
##스카르
군산
##gin
##구역
강철
반공
손꼽
저렴
정관
체력
##국사
그림자
카를로
CBS
Vol
애칭
##사우
어려서
후속작
샌디
이북
카바
##illa
Dis
##푸아
기념관
방사성
당연히
메릴
보강
신정
정선
조형
루크
장자
진전
##클레스
1848
듀오
커리어
고추
태백
포식
from
당수
모은
워치
경성부
Open
잡아먹
벌인
페미
깨끗
디트로
모터스
쓰시마
재해
준주
되돌아
디트로이트
매거진
아닐
애리
하타
그레고리
특색
함선
해남
헤어
활주
강대
대관
발칸
스님
페로
new
델라
카니
##티시
##해튼
루돌프
심화
엘리트
충청도
피아니스트
으려고
제작사
아나키
IV
TR
밝힌
비엔
칼뱅
##EM
간신
번성
접수
Comm
구약
대문
명하
안산
##버리
##포터
애틀랜타
시뮬레이션
골격
중공
1887
농사
브레이크
원격
철폐
프렌
연기자
end
듀얼
로페
미륵
신동
##ior
이시카와
비뉴
연동
호스
어리
해저
현행
호쿠
배우자
안드레아
내성
무너지
신축
지방산
김홍
무궁
소자
기관총
교실
여운
##믹스
1886
후반기
바트
어뢰
##간지
맞붙
상경
장원
리프트
폭로
##에미
단행본
속편
수녀
자카
1891
미셸
벽화
서리
안경
Good
궁중
어로
##ara
가열
일명
중공업
##나드
##IL
관행
급수
소행성
용서
이모
##가미
극작가
리조트
국유
재외
##erson
돌출
후작
##케이
토착종
미주리
수중
지녔
파병
구청
복권
평창
##기구
GB
갈리
분파
이언
이반
흥선
##sch
##ym
옮겨졌
페이스북
캐서린
까닭
수료
이데
##za
마우스
유부
##파이
##불교
다케다
낙동
불타
요제프
Geor
국악
테일
특별자치
가져오
새겨진
특별자치시
뉴클
도우
온대
##미즈
##UR
자유민주당
더비
약하
징병
퍼포
포도당
지청
나간다
리마
무술
소울
편집자
우즈베키스탄
퍼포먼스
둘러싸여
가타
입주
출석
##콥터
##ille
동요
마당
유권자
##EG
##반구
마다가
광양
오락
유스
학력
아데
적군
헬륨
##사리
극도
남용
##바흐
지성
따랐
머스
민정
보성
양육
유정
##산성
넘기
이룬
청색
대지진
단의
블리
재난
축조
##ux
그려진
텍사스주
부조
사살
슈테
피로
한층
교육부
다테
##바른
역사가
몰아내
밀러
바디
우상
조승
평민
사무총장
라디
무조건
아쿠
정맥
추종
##ram
생겨나
Pol
Sec
광무
브룩
프레이
##몰로지
아름답
다를
빛나
싸워
취항
##천사
##원장
시켰으며
비주얼
경인
과실
도선
##DA
##쩌둥
마오쩌둥
모호
선우
안치
##벨라
나란히
오미
창의
치른
##텔레스
이동하
##ement
보수당
시즈오카
타협
토리노
##번뇌
그리스인
거처
빈번
지오
##사업
##LA
##OP
##으니
주어진다
##사관학교
맨해튼
왕정
BM
공약
주화
##거래
레이싱
소행
우물
인테르
총기
콘테
프롤
##피언
##틀리
동유럽
##lass
경위
나인
등용
제왕
##림픽
고쿠
문경
아빠
알렉스
스트라이크
CONCA
가볍
열심
##테면
##뜨렸
이를테면
림프
메틸
심야
오로
의과
파벌
확고
일부분
와이번스
그레고리오
보라
삼림
##멘스
##ision
CONCACAF
만년
앤더슨
##티넘
##제이
플래티넘
##기념물
가이드
연립
진수
자세히
라자
세븐
울리
펜싱
합당
신도비
이득
일파
주이
아리스토텔레스
윤보
정경
창녕
카테
레이크
이주하
프라하
NT
대본
##컨대
##eral
Christ
마라톤
낮추
Nor
노미야
매끄
표창
실험실
그렇지만
돌입
연못
후진
경쟁력
RP
wh
리보
이완
##ael
##질러
Out
갑옷
다툼
왜구
종양
컴퓨팅
##바야시
스트라이커
도네
로리
리비
보행
신종
장제
종파
티켓
##다르
##yp
ATP
보헤미아
Li
안방
##에스
##바오
한국방송공사
로마인
ref
통틀어
스태
##맥스
1866
only
카탈루냐
Che
가솔
마에
매직
불행
사쿠
새로이
가토
공손
콜레
##파크
##퍼슨
##십자
Ber
dis
거뒀
기성
제너
조인
1881
1876
복음서
패럴림픽
구니
상기
위생
쥐속
집결
##지오
메라
홍문관
##미스
된다면
아키라
창시자
IR
찬사
티아
##air
Korea
맹세
브레이
중서
중원
항원
빅토르
겉보기
리코
명분
문고
용암
이바라
현직
콘스탄티노폴리스
애리조
Des
강풍
붙여진
살려
세손
타스
##oo
비타민
흥선대원군
들려
리모
쥐과
##홀름
##면체
프랭클린
파나마
공표
몸통
진해
김병
실존
지켰
##메다
마차
마르크스주의
##위원회
오하이
##고비나
##체고비나
오하이오
감동
##버러
강남구
개항
센고쿠
을까
집정
현감
결제
##공산
유료
대중교통
EBS
반역
온다
펌프
무척
시애
##마리
배양
선천
우아
이장
##코토
##ics
로렌스
여권
자결
자칭
교육청
210
마다가스카르
블레
증인
퍼스트
##지능
고등교육
##idae
인공지능
낙하
대각
선장
전산
케인
호응
##운다
나트륨
사운드트랙
법정동
뉴클레오
관동
##af
##ze
스트로
MTV
등극
색소
총무
콘솔
##난성
천연기념물
아날
##ited
station
프랜시스
Red
장단
로트
소피아
수다
수심
타석
지지율
성남시
kt
모인
엄밀
영예
정제
##ett
시애틀
서산
전단
제동
였으므로
화순
##소통
간첩
국수
타이베이
수원시
앞장
재활
제노
흉노
##테쓰
내야수
브루스
계시
##관리
##와라노
삼국사기
나루
포고
호의
마르쿠스
리바
평평
휴게
의사소통
유니버설
가브리엘
내무부
이븐
클러
평형
##ww
신발
에프
정국
짐작
퇴장
하키
다카라
후지와라노
신상
일괄
자생
장흥
##ura
##str
경질
블로
상연
상급
저격
지로
칙령
정착지
스폰서
맞대
전격
케플러
##OT
##위성
##atch
아스널
Song
내면
약혼
##lude
Fr
볼셰비키
정인
줄여
테리
요시다
각성
대국
발각
이규
솔로몬
Dream
탁월
야구단
일으킨다
대합실
끝났
Ver
북아일랜드
충렬
카터
AV
메일
투항
넘어갔
벤치
생계
차용
Tour
게릴라
명소
성령
해리스
투자자
석불
이점
줄어
하시
분류군
동물원
비늘
수염
욕망
##플로
선보이
활주로
농산물
어군
포착
##mun
몽고
시국
##매매
전날
조례
1592
오클랜드
Em
배속
##lin
##메스
예수회
붙여졌
Sw
올바른
지쿠
하류
1861
야드
웨인
일리
주지
주입
중상
호크
##FF
해리슨
ABC
시몬
알래스카
쳐들
1873
RS
농어
문종
본성
오로지
우왕
입수
트릭
파문
러시아인
대장군
후쿠오카현
Mi
동참
메뉴
봉해
창문
켈트
##cess
##헌영
아무것
미야자키
대성전
감금
드미
복식
온갖
워커
원심
이방
##리코
열린다
David
볼트
불변
호족
이용객
동시대
미스터리
생선
악보
왕세자
고든
비야
재팬
모용
발라드
출가
##ors
초고
캐리
아니하
경시
당내
모국
샤프
조계
하노이
ab
모하
치환
쿠퍼
황도
아나톨
우체국
Kn
강령
마술
민요
벤처
사탕
##ience
##uth
드루
메카
소음
수교
시노
1872
화강암
독창
카지
부드럽
리베
이양
##으로
야마가타
가솔린
인칭
장대
청룡
##ough
뾰족
슈타
##메드
Er
피지
허드
아이즈
et
걸린
루키
함양
데이빗
##app
Dra
글로브
Val
가늘
친위대
크라이
클레이
##aster
반란군
법조인
American
NASA
마애
안녕
제명
튀르크
플랑크
1864
신지
조병
커플
##삭스
헬리콥터
도피
반성
시부
펠트
관청
기병대
목회
가의
불어
오른손
다윈
Bra
성실
친분
##지기
##바나
김유
상어
하야
는다면
330
헤르체고비나
무궁화
NP
기전
단과
리사
밴쿠버
한신
활발히
릴리
메스
수필
##도르프
다카라즈카
시크
이송
투여
##통일
##덴부르크
기관지
1878
올랐으며
Ang
두려움
베트
시종
역도
의류
##수스
이룩
참사
학설
김원
마닐라
보로
송신
악어
예약
화랑
케이프
스톡홀름
스로
유러
##eng
정부군
미군정
광도
천왕
칼럼
하반
중앙부
바이트
넷째
도둑
미친
컬렉션
##사고
스테파
개개
수인
1850
레이트
경호
고생
배려
통역
화기
##환경
네이션스컵
King
Mich
긴테쓰
동대문
##페스트
에이즈
경희
국당
라흐
반하
##aj
주차장
App
재질
꼽힌다
##합성
대사헌
프린스
유러피언
Pri
감싸
정거
1863
Park
소말리아
글러
만장
씨앗
침묵
카피
##000
세워져
앤드루
API
윤보선
니혼
돌보
이겨
절정
##할시
프레데
Mor
OB
궁궐
리옹
삽화
타이어
##ello
Po
Sam
급여
방콕
조광
황소
##들여
##lay
예선전
선구자
검정
김옥
스가
##사상
##거지
알파벳
comp
개헌
준수
신문사
용인시
www
려던
부다
분과
송도
슬픔
시중
감상
채취
나타냈
김형
로크
요지
##EP
1865
어려웠
오리온
우림
장시
##빌라이
플라톤
센티미터
박종
플리
##천동
##무소
스타트
정의당
메이커
평안북도
박헌영
보낸다
청자
##li
Bre
난이
동이
사각형
수락
##카리
Mer
극락
라르
로버
섬세
시합
##로쿠
##ody
Heart
평안남도
찬양
테무르
특전
향했
협업
자치주
대법관
Paul
가고
도교
럭비
모어
응급
해져
##러지
##등식
유년기
모차
세군다
일당
정종
천국
통용
해태
##ati
시달리
초신성
다투
로얄
절망
##관계
카메룬
성화
처하
시네마
무형
별세
위그
유혹
페트
##AI
가져온
가맹
비대
위나라
캐롤
코소
헬싱
아랍에미
총사령관
아랍에미리트
노사
대대로
사부
상행
총통
치과
튀니지
트렌
203
다저스
메소
카네
가쿠
무실
밸리
1875
관문
스텝
프랑스령
올림피아
##공산당
고딕
남산
벨리
자란다
포토
그래도
경영자
안테나
Cal
구두
이터
함자
화약
느린
파도
파충류
##블랜드
다우
연정
자명
칸국
부르고
SNS
담보
라리
루체
##ney
원통
유목
유의
케라
쾰른
##ations
올라갔
다람쥐
소프
쿠빌라이
마이어
그라운드
이뤄졌
마켓
모세
이의
전담
제물
##원수
클리블랜드
Ev
James
배드
볼로
사역
자제
팔렸
##eck
클린턴
OST
개구리
격리
그저
법관
삼중
종자
노동력
나카무라
결별
노프
철종
취했
편제
##60
##언스
프란체스코
독도
사서
여배우
유선
정형
추이
치카
##치히
##들이
##암동
##히트
똑같이
아날로그
SH
전래
IOC
co
하행
만화가
노론
라서
추리
타일
로드리
불참
주임
초빙
##상어
놀라운
베어
제퍼슨
종식
총애
편향
##칼리
##its
라이더
##ety
쓰여진
강렬
니키
당연
와라
직통
토스카
##work
아름다움
장학금
리카
패트릭
##휴일
##메니
##ena
안나
용액
케르
퇴직
##제품
##창호
##클레
콘테스트
극우
잠정
척도
##식성
방어선
본작
소중
암스
전무
##애미
마이애미
김정은
이바라키
음운
친족
페트로
피드
해독
히토
##려서
##신문
##위안
타이거스
대영
앙골
항체
##let
내려졌
Instit
애정
##네그로
1867
City
GM
방치
수복
거주자
객차
파손
공존
금호
백과
##con
##gan
클라우
넘치
동진
모라
이치현
부르고뉴
초콜
카툰
효자
##천면
##덕왕
브루클린
목요일
차출
피리
비밀리
맞춘
무네
부각
소극
야전
자메이
##라니
280
자메이카
고노
끼치
불량
실권
형질
##스트리
라인업
스카우트
피라미
오바마
김규식
we
데드
로키
모빌
##놀이
레오폴
필립스
아케이드
AI
공파
냐는
어쩔
여유
폐렴
##지아
함경남도
부원군
워즈
프로리그
##ates
Cent
마누엘
프랜차
카스티야
감성
서대문
엔드
연말
전전
정치학
경복
너머
도래
##대사
##AE
Int
##ensis
왕권
##sc
##port
##테이
230
패러디
강해
사방
위너스
##ling
##프로
##unction
모의
봉화
자란
적외선
징수
폭파
경전철
플로리다주
NS
가우
남해
동향
##erv
프랑스인
Inc
Cont
Club
ML
수양
실정
양심
예컨대
운임
포털
미수
실록
접종
호대
생존자
프랜차이즈
AL
Pre
마셜
무르
부총리
스칸
야외
영유
320
1869
##include
나아
수로
##테이너
##어사
시코쿠
검은색
다치
모건
부평
잇따
중퇴
합친
후배
일본국
사라진
가락
감찰
공휴일
익숙
예정자
가고시마
무작
설문
외형
고속버스
1830
onlyinclude
가혹
묘비
엔트리
알렉산드로스
TBS
순종
해피
##ᆞᆫ
정읍
총격
칼슘
톈진
##망디
열심히
공양
라바
모욕
산둥
율리우스
키예프
탄자
평판
##웨이트
김광
도키
모금
유격수
Met
걸어
랴오
리본
아와
연한
오만
유희
줄리
##bur
##사카
##바이트
마이크로
대리인
비추
죽인
유적지
Af
국한
최진
##거스
Thom
중소기업
Tw
거미
국외
##브로
헤이안
Best
사설
사쓰
테네시
##대표
##아나
##oun
리믹스
조니
큐브
해상도
권역
히브리
##드리아
##의사
##ero
나타낸
서재필
기숙사
Let
모색
파란
화엄
격추
바지
소사
음절
톱니
##정원
##유예
시트콤
Euro
리즈
최선
코리
탄약
교통부
##클리드
메디치
정거장
##ces
##OW
##화학
간신히
cont
러서
즐길
##ga
모차르트
구실
노면
맞춤
비준
세습
예의
은거
지상파
줄기세포
굴절
백두
송출
혼다
##로이드
Stud
드러냈
마법사
Rich
대북
쿠웨이트
명확히
모셔
바꿨
세요
관용
산시
탑신
##UN
가중
공소
란트
리트
슬하
회귀
##마르크
##ari
가로지르
에른
우시
토트
편견
##란토
생긴다
Min
구내
마트
문단
식스
자서
절벽
조셉
##RT
몬테네그로
AKB
카카오
안개
월터
위조
져서
##berg
스캔들
처지
##캐슬
1862
야마모토
에이전
파일럿
겹쳐
독수리
램프
박테리아
변종
보령
서임
카세
##히사
대니얼
근사
김명
실증
어찌
##토프
프로모
방사능
Record
간사
동적
카스트
LED
사수
접합
타수
하남
경주시
김준
셀레
이스탄
콜럼
##레시
들어올
이스탄불
마땅
몰타
헤일
기차역
Tri
서귀
약사
치유
황색
##정동
##iew
인플레이션
국철
도자기
아유
주계
국제법
바그너
여의도
부양
업자
##다운
##워하
##라이드
AB
비정
사비
시안
한림
##지부
낙동강
피라미드
del
거란
대진
도박
비토
##수원
##프턴
찾아내
프란치
Group
검거
공영
재일
추존
##현동
##어졌
Ap
tv
서태
여고
천거
##센스
TC
하코
항만
##데라
260
단체전
정반
##해살이
##uss
다이쇼
4000
제이슨
정작
Rh
공성
류큐
바젤
사치
생리학
에로
요절
천주
##나마
##대교
통신사
구금
뉴캐슬
댄서
슬램
특화
미츠
벌여
허정
##urus
Win
글꼴
기이
심문
씨족
Inter
Mark
JTBC
Bab
대원군
스모
누렸
산성
외과
해치
헬레
휩쓸
270
바꿀
이와테
마천루
스칼라
김인
덮개
진로
캐피
피크
형벌
1874
Windows
분사
수위
요격
추억
##서니
##워스
다이어
국공
##ila
국교
드디어
아브라
유우
제위
부교
심부
##나오
##헤드
사회민주당
아이언
##eturn
https
스트리밍
그랜트
귀신
그릴
방대
이메
줄리아
##der
##화문
컨트롤러
공무
말단
배달
부합
서스
쌍대
어시스트
오디
##시노
묻혔
시멘트
신곡
여사
열강
증폭
흐른다
##풀이
##ope
하노버
CG
임정
초안
계주
위구르
절제
조교
중수
함량
연극배우
체인지
관례
어파
유공
의령
##uch
나타날
Hol
든다
라시
성곽
왕건
요충
##말로
보수주의
김윤
내걸
버터
재편
말미암
대마
반포
산티아
이회
추력
켄트
##파니아
##40
##비크
활동가
라파엘
공대
지배자
녹화
라기
레트
사천
외래
우한
유아기
잃어버린
메릴랜드
배아
스루
코사
플러
사이먼
끝날
성악
##res
영원히
배분
사민
열전
##ump
##에고
##돌이
저지대
바비
코퍼
타락
힘썼
영화상
니콜라스
고의
능동
매킨
아츠
호스트
##콘드리아
##포시
##enti
달라지
미토콘드리아
요하네스
고쳤
수식
##사태
##팡이
연장전
이뤄지
750
간략
무언
북유럽
유클리드
프리스
관계없이
로마자
고마
딜런
선명
##raph
과테
단조
유서
은혜
##티모어
과테말라
고로
남방
데니스
레프
박성
예종
##레스트
밀어
병자
사림
점포
프루
픽셀
후예
##에몽
Mod
선대
스콜
시비
양보
신주쿠
무안
범행
##ty
에스페
노르망디
건전
소외
요양
적료
차선
태후
슈퍼컵
라카
산요
카마
커서
홀리
##서스
부류
절감
##ush
삼존
온난
자수
##드레
##80
San
서면
위즈
즐거
파푸아
집정관
section
꼽히
동산
Chris
금산
제우스
할인
##용차
##워서
대승불교
Fri
갈아
달랐
대인
봉인
새우
수열
숙부
습윤
약해
한미
##ek
가져다
해부학
단결
모범
에반
중엽
##도라
전반기
Sun
iOS
합치
GNU
사학
연희
치하
표정
##트르
시켜서
올리브
공화정
세비야
휴게소
문집
산스크
송파
코네
산스크리트
RT
바스크
성동
우산
자재
연구회
##ular
토마토
위로
재래
주선
다이빙
도미니카
루이지애나
타로
베이시스트
뛰어났
느낄
미나모토
일리노이주
Big
라미
서바이
주심
지법
##지리
Blue
College
앙골라
MA
고흥
기쁨
밀레
소아
안무
졌으나
동맹국
가면라이더
초콜릿
KB
대도
도이
구독
상록
양수
준장
##por
##RI
부상자
Rev
프로그래머
어긋나
암스테르담
교부
매리
헌장
##EST
USB
CV
SO
각료
무과
미아
유식
허블
##cus
##gen
##프랑크
지리학
우울증
글래스
관악
기량
내일
스마
잠깐
종영
트리오
##duc
##gy
##ION
하이브리
Center
기해
도출
발상
심포
레드삭스
Michael
무색
수력
외치
우월
타리
트램
##BT
군사력
원산지
영월
지르
##게스
코스타리카
대나무
브릿
조영
코펜하
##우회
##버른
선진국
코펜하겐
과잉
급증
긴밀
흥분
시켜야
관현악단
산티아고
DF
대차
접한
조슈
형용
##ha
정보원
하이브리드
기세
남군
넬슨
노현
바시
정월
종군
##cle
##내리
##very
브뤼셀
교의
단속
버진
속력
항로
##추부사
대표자
데이브
부르주
스탠드
거성
김선
때려
발동
대상자
오스틴
비서관
탄자니아
라니
선봉
원군
하급
현은
1879
FK
습관
오아
하의
폐기물
결핵
꿈꾸
샤이
여도
접어들
항우
##슈타
##ated
광복군
신세계
당뇨
마타
바울
부름
수요일
정정
천천
마요
족보
베이커
SV
심근
아목
장덕
피셔
Associ
마테
몰도바
우연
톰슨
후유
##DS
##osa
다이노스
너무나
스탠리
Phil
UC
소동
재발
##자루
생리
한큐
시간대
포르노
1877
대단히
파시즘
뛰어들
천안시
만난다
무서
헌터
##나갔
##바리
미야기현
천천히
막판
최영
베르나르
관상
바쳤
안티오
##히드
공식전
가르시아
군벌
반동
분단
사영
아흐
이니
피할
##ning
##irst
가와사키
Great
대명사
HP
미미
왕궁
정령
##업자
##걸이
##토리코
서사시
금전
단정
리튬
맡기
사키
았었
앞선
펠릭스
노스캐롤라이나
어울리
떠오르
퍼즐
##융합
교향악단
무실점
리차
배기
재결
호아
##타케
##오르크
흩어져
기념일
This
다듬
멜버른
##루이스
프란시스코
에른스트
지극
출동
피우
핵융합
##라호
##네임
텔레콤
동포
라즈
모던
보름
잔인
종신
##마주
##GM
##게임
하이퍼
고인돌
DR
규탄
나간
내분
배리
쇠고기
영덕
방위군
푸에르토리코
550
식용
신입
증오
첼로
해안선
복음주의
해운대
복종
작중
직속
걸쳐서
로빈슨
결사
영정
제단
철강
법원장
오일
조제
직행
학장
아라곤
프레임워크
Lou
단군
머니
세련
청도
화장품
이즈미
장로교
계량
교직
마린
미친다
재앙
전보
##ason
해결책
상관없이
고온
물결
판소리
Rad
구획
포츠
Tom
기스
발목
상국
수량
양대
조롱
컨테이너
평지
피의자
헤로
##나기
##셔주
Cap
Way
as
단말
문무
위함
청계
치러졌
LS
Net
놓인
반기
시속
주창
케이트
파편
##라고
떨어진다
도로는
케이크
프린스턴
##span
데스크톱
쳐들어
코소보
관목
교인
대좌
순차
정진
집착
황산
##레반
1840
알아보
끝난다
농지
미성
박상
스투
외상
출자
하임
##세유
##우에
##열차
##공주
생겨난
res
거지
기와
덩어리
##oy
Stre
녹색당
노벨상
국정원
로브
무수
백악
보루
전세
페스
Sing
닉슨
대덕
사안
지석
여성주의
베이비
세네갈
거세
데일리
떠난다
박자
북군
윗부분
이아
파열
페더
##oot
비해서
지닌다
BL
부왕
생도
컨설
##나파
##동자
내세우
게끔
그란
저조
##br
보여준
달라진다
날카로운
김치
로만
민병대
옮긴
장녀
축전
##티에
##mus
롬바르
빌바오
앤서니
오메
웃음
진한
휴양
am
강행
고스
만점
순례
신진
유생
천수
키워
한문
홀딩
##den
##몬트
구르
남하
백악기
병마
자궁
##ature
가부
오하
월트
##민스터
##본부
##셀러
레이디
##디나비아
스칸디나비아
자서전
명인
성원
우두
은신
가라앉
Dr
per
가했
격려
니켈
데미
전미
측량
쿼크
형편
##플린
바로크
뒤이
배역
성매매
##익스
음악원
##olution
둘러싸인
650
번창
본체
앤디
에마
오일러
점거
##TE
사업소
브리티시
you
군데
덴쇼
보너스
염려
페오
##쓰기
##협회
유전학
고분군
김승
까마
부파
##BI
##국적
야쿠르트
Hot
PL
노후
버섯
아다
해왕
현도
교육자
다스렸
브래드
볼로냐
리퍼
산물
##of
##히메
중앙은행
달아났
네티
대청
도카이도
오지
전수
피닉스
한중
주계열
가닥
숨기
이항
자진
펀드
픽처스
##여객
##비안
##비츠
##비언
스포르
Reg
1859
아오모리
애덤스
XP
게오르크
번갈
유영
정몽
더블린
무단
아메
여호
##las
발전기
스테이
Award
Cr
TS
당할
러일
올레
천마
추서
침례
##큐어
프랑코
##ization
크리에이
겹치
세분
온화
이봉
이은
일각
짐승
기업가
마르세유
논리학
프리미엄
오클라호
마구
위력
##너드
후원자
펠리페
Dan
Wii
생모
어웨이
육군사관학교
루체른
po
주세
토이
##꼬리
발사체
PP
공안
받들
었었
차세대
카와
##tical
함경북도
낚시
충무
문자열
아세틸
로이드
카야
##ka
##QL
지켜보
장난감
Hen
꾀하
내력
반주
##들러
결과물
허드슨
Si
구치
등등
라드
비스타
연회
옥타
전락
하구
Back
von
가극
광업
원활
정했
켄터
탈취
함흥
##bs
##호란
내무
마티
성기
원유
출혈
##by
레인저스
공방전
가독
노아
입헌
제철
주니치
포화
##olf
Techn
덧붙였
부다페스트
NAT
su
관성
익명
##홍색
##꿈치
오스트리
강당
귀속
아지
유다
유족
칭송
피사
##론자
IMF
오트
용품
위촉
임계
철저히
민영화
계보
남조
너스
배트
주성
##하임
##타입
프로모션
고이
도상
목욕
웨스트민스터
급속히
영암
장병
전학
패자
휘말
##sy
역사학
##itch
무작위
##익스피어
Light
게오르
박수
셰익스피어
제르
좌의정
축산
코스트
##암리
보낼
악곡
장래
점검
지층
풍습
##다오
##그마
경계선
요충지
기뻐
소용
위계
유포
촉발
##ring
카운트
좌표계
제갈량
매끄러운
높였
도약
유학자
정재
지아
##로니아
##ball
그만큼
에스페란토
라가
볼티모어
인제
자립
필하
고려대
생성물
##ship
Fre
소대
우의정
제천
카레
한번
과시
스기
유머
취해
##atic
##lor
기원후
사상가
강성
대접
삼척
선인
아자
애인
조현
##태평
##콘신
서해안
위스콘신
Kar
라크
시우
에바
평했
항생
##ove
##누마
포르투갈어
고집
길드
니가타
어의
요괴
연출가
견고
단국
불사
서주
암모
직계
김천
내린다
넥센
랭크
미식
##hem
해안가
상정
순양함
##클라
참모총장
대종
대주
리에
소학교
울릉
저축
장애물
켄터키
높여
성산
슈타인
지면
청송
클리어
편안
##리드
##북구
인공위성
군마
얼룩
영천
주먹
취한
침대
##go
##미디어
로스쿨
Serv
금나라
버러
아카이
왔으나
외환
접해
조개
흡사
##니크
레버
몰랐
불분
쓰루
쿠라
특기
파파
##rol
##tian
갈라져
간사이
갈비
광선
전주시
##철수
##브웨
##보리
##독립
Mart
name
벌레
스윙
이호
밝혀진
합창단
구시
남송
마나
외무부
자코
자릿
코호
##둘기
올리버
으려는
관현악
마스코
신대
짐바
유니버스
세르게이
기밀
노랑
약점
어는
코모
##코르
##쇼프
##ese
##uman
라이프치히
온타리오주
드미트리
강세
아디
오대
이누
피어
##쿠르
비지
산책
##상시
Rem
mod
공법
로베르
머리카
뷰티
홍성
##my
격투기
머리카락
견디
모멘트
퍼졌
현미
##즐리
스테인
##gram
이바지
사절단
무언가
Off
베일
피핀
기운
긴키
용의자
들어섰
사단장
KO
발자
차수
군관
도하
물류
스런
스킴
양력
에두
이황
청량
##친왕
무로마치
김옥균
거스
네모
발산
서초구
경의
스몰
앨리
황자
##티노
##ther
대공국
Exp
프란치스코
AU
Are
발톱
봉우리
새긴
압록
자판
저우
대표단
아이콘
이산
잔디
##MC
##XX
End
간혹
광자
일설
절도사
조공
직사
베르타
동맹군
경영학
개체군
구스타프
DB
구문
동종
배척
보정
부에
콜드
##로폰
아무리
구강
불경
양파
왕관
혈압
화요일
##미니
당황
대금
레아
사변
손녀
수하
아님
제창
##ham
국제선
고려사
평안도
간직
강진
끝냈
렉스
미칠
재차
차츰
##yr
##광성
지붕돌
거칠
구한
명부
바인
코마
204
스테이트
위안부
강서구
두각
사내
새뮤
심상
바람직
우에스기
보좌관
레비
죄수
홈즈
빅뱅
참의원
특사
합하
##로니
##네트
##니파
낭만주의
거룩
저해
점진
행방
##바도르
RC
WHO
공시
도성
상한
서포터
유능
의례
중개
초전
퇴위
##부아르
205
Bus
낙양
눈치
맥아
백업
버크
수차례
위시
유라시아
경매
기고
완결
쿠로
파커
후미
##클럽
##폭탄
개정안
불분명
경무
공판
배운
버티
애완
전권
모나코
리키
면모
워킹
터지
##ule
##자동
강화도
경복궁
Ear
경마
타시
향기
환관
##16
이성질
Free
Mr
Sal
sub
리브
산수
##분열
##변속기
돌아다니
노르드
카르타고
colspan
tra
붕어
페라
필연
하스
해병
##렌스
대전차
Charles
납부
내림
모닝
사커
아어
애초
조시
##oman
지나간다
금동
놓이
축성
해냈
집행유예
아틀레틱
VS
다비드
서예
송환
용해
장쑤
협연
혼혈
##른베르크
##워즈
보조금
게시판
꼬마
복위
온건
뛰어넘
별장
산청
경색
관우
들리
타현
화성시
Gold
댓글
러닝
브르타
탄산
후쿠이
카이로
보안법
브르타뉴
AA
과연
로니
열려
##러진
이뤄진
후세인
사쓰마
Trans
ind
내포
농축
도제
동창
루나
수나라
완도
트란
필명
Pat
글렌
라이스
사보이
아델
에치
태아
##유사
포항시
기동전
##earch
가해자
토트넘
새뮤얼
Jose
가든
과다
스톰
습득
재고
##린트
이메일
Tim
나마
복싱
부전
생화학
실각
오우
토목
흡연
##데자
##ci
##ural
트로트
아이디얼
HTML
##데자네이
매스
세레
페르난도
if
야망
원동
이범
카슈
재판관
짐바브웨
도르트
사나이
아타
아편
오즈
유타
피처
흘리
##성경
##자원
마르셀
앤드류
로맨틱
Institute
까마귀
세무
정촌
치우
파주
피카
##리아스
축구팀
부분군
바이어
재단법인
Road
키르기스
##그래피
란스
사나
장전
표절
흑백
##리야
##예술
##nder
감리교
장제스
경도
무자
발의
양현
하라
##코타
서기관
반죽
으리
조심
키릴
##HC
##왕후
Alb
아비달
내보내
Sil
대의
불계
소라
여건
이례
친밀
##디언
클레멘스
프라이즈
지질학
JC
기통
배지
우간다
일진
킹스
##디슨
##비오
유전체
만날
리우데자네이
리우데자네이루
GR
깃털
라다
패권
##리쿠
##니오
##연의
##효소
조선왕
마스코트
곱셈
김희
나름
납작
루즈
박진
수이
양조
##두르
교통사고
타임즈
피츠버그
Bel
산기
상파
알폰
액세스
엘라
음주
탁구
환율
##EA
교구장
조승우
SR
뒤따
컨텐츠
스테판
몰두
열릴
와이드
통지
포탄
두려워하
미네소타
객원
세간
에픽
완비
처방
현판
화학자
삼각주
##타나베
di
밀가루
일지
푸아
##vin
다시금
근거지
##ific
사간원
두꺼운
She
거꾸
다행
발포
선양
애슬
진흙
타구
파랑
##yle
##쿠니
제조사
##tics
##라이어티
HMS
업로드
옥시
조장
증식
직관
착취
##단위
802
##올로기
포식자
이데올로기
갖춰
버라이어티
봉수
안산시
원상
제프리
코뮌
투하
##ks
##평리
기미
메츠
반점
유태
##tra
##서기
기획사
선제골
쇼트트랙
황해도
코퍼레이션
전교
조소
Cro
경종
구슬
나사
단거리
선율
성자
센다이
채굴
활자
##루엔
독주
신석기
용사
##티야
##VA
##께끼
엑스박스
수수께끼
아우구스
클릭
제작진
근래
위패
##탄올
요금소
##태평양
가비
고모
내재
무고
버펄
엘런
이별
진원
키즈
해시
트레이닝
벗어난
컴파일러
급히
재벌
황폐
##ative
##짜기
##센터
해석학
운전자
가창
다이스
도도
섹션
오산
이거
캐스트
홈경기
행정동
재판부
난이도
네티즌
네임
수퍼
우마
정황
타타르
##ca
관련자
이어주
반대파
여진족
펜실베이니아주
교지
린다
섞여
여타
컴필
태우
마을버스
범죄자
부르주아
불계승
컴필레이션
극찬
단자
방공
주고
죽임
세계유산
전해졌
베네딕토
Soci
구부
남베트남
베라
부실
시르
익산
잠실
##로움
##킨슨
따라가
1858
가로질러
Bu
Pop
다국적
뒤늦
민물
쇼크
승단
시문
채색
티모
##els
공연장
유니언
Association
매진
앵커
자폐
튼튼
호크스
##바인
6000
초록색
Thomas
미나모토노
Die
나탈
브렌
솔라
잔해
전과
코난
홀딩스
성가
성수
오구
인위
정예
처해
히노
##rich
1856
알아내
중공군
경량
승용차
##ters
그나마
대강
심소
완수
왕성
중랑
촛불
슬로건
나뭇
세단
순항
에트
청각
##루크
##oul
스케이트
유기체
관내
볼넷
부두
전리
조경
팔린
합금
##젤로
Champ
헤라클레스
내역
살짝
토라
푸드
##솔리니
삼국지연의
거꾸로
도산
삭스
섬기
신봉
온두
지그
평탄
##ira
8000
Soul
George
온두라스
Elect
고성군
국부
다목
이달
통폐
##플렉스
Sum
증세
취향
캐치
항아리
햇빛
스코어
계승자
Enter
두드러지
동차
입술
중고
천지
콘티
토로
헌납
##입자
요리토모
후지와라
웨이브
스파이더
Ger
김연
라치오
북조선
시원
영사
청문
##포타
256
탐험가
달아나
걸작
구례
백자
슈고
합천
##ret
독립군
380
편집장
보리스
자외선
천상
파기
##net
인해서
기후현
도라에몽
닛산
죽여
##ya
##수단
##ird
숨겨진
종착역
가곡
경건
노브
라프
발가락
추계
크루즈
메소포타
메소포타미아
Du
ON
der
구아
마모
북대
와타나베
의용
인승
증발
##oft
##바지
공통점
머무
열렬
용감
한창
235
금고
던졌
유무
출세
##itz
##ague
당선자
Alex
사교
예프
오자
적정
정명
일본식
대리석
Over
다비
다닐
응하
토키
##르바
##OK
목적지
사무국
##ogle
http
통폐합
넘버
맡겼
분경
승상
앨버트
파직
판관
##ee
##ita
Jean
고창
반항
서거
앞세
양궁
잡히
해킹
##70
##타스
프라임
Company
제너럴
자릿수
군세
떠날
미학
소작
열역학
증조부
최장
칭했
##인구
라고도
움직일
도망치
마그네
각주
감추
뉴런
당과
맹활
무도
비싼
신해
열쇠
지경
##aint
페르디난트
아비달마
WC
걸린다
대담
사소
조준
주저
치킨
콜린
페인
##aff
##던트
##attle
백악관
KS
강우
지문
쿼터
터빈
후드
##세다
대한항공
맹활약
Bad
Jack
괄호
노란
동자
매립
복역
손님
연행
윤석
조나라
필두
##정보
##느리
705
1812
##슬라프
베스트셀러
Play
프론트
형용사
넷플
닌자
블러
상과
옹주
위헌
커졌
탐정
##니티
작품상
##스타인
치료법
What
충렬왕
넷플릭스
곡면
리자
알맞
위법
조어
항문
##고르
##변수
United
HR
Wil
양면
오보
욕계
##NG
##들였
아닌가
대교구
계좌
교제
니케
로바
부추
서한
오시
이브스
칭기
##지로
NATO
다닌
슬리
직물
충당
경쟁자
하얀색
라라
보직
장신
처한
촌은
타도
##발트
##ray
Miss
고난
그랬
왓슨
종묘
체내
##티컷
##소니
209
루스벨트
코네티컷
갔으며
국호
굴복
법전
복직
부군
빅터
증강
튜브
##ba
##뉴기니
##lement
백과사전
플러그
God
time
걸프
단서
도봉
무솔리니
손잡이
##나시
##atus
국민회
야마다
외교부
KN
접전
폴라
##22
##니코
Lu
계엄
미인
여학생
원제
파시스트
조선소
Lee
핸드볼
보류
##ness
##르카
##가르트
##퇴근
1700
입법부
가두
건널
변증
야심
엇갈
요즘
##훈장
귀인
이선
중등
패스트
휩싸
흐루
##네오
##프랑
##으면
##직경
##블릿
##빌리
스트림
협동조합
my
을사
인산화
지탱
초음
행보
##토크
농어촌
코호몰로지
공상
꺼내
시직경
어선
이야
친화
현악
##징어
##뛰기
치료제
페르미
inter
MSL
장로회
이노우에
도르트문트
CIA
With
it
교동
변모
횡령
##드라마
##매김
1801
석가모니
강호
목동
뽑혔
엘레
유미
철자
터뜨리
시티즌
매사추세츠주
과반수
하반기
기묘
리크
모조
사하
입시
적발
줄일
##RNA
##사화
420
알프레드
보살상
압록강
칭기즈
AF
댈러스
상선
앨라
양양
절약
현무
##벤션
헤르만
억제제
데카르트
##해살이풀
리차드
Kh
모함
베풀
봉황
안식
앞둔
오름
자행
종업
출퇴근
폼페이
##진구
##펠러
2023
Art
볼록
상동
웍스
이강
처치
##디부아르
##HD
##ocial
코트디부아르
gr
배향
시시
어우
인코딩
추후
카츠
화음
언론사
도발
자정
칸트
협곡
##할린
##번에
206
자리매김
심리학자
출입문
용산구
##ittle
Street
가명
고국
무비
북벌
위도
유익
종사자
해지
##더지
##PA
미카엘
Sur
급성
나빠
남아시아
다마스
모란
모반
세토
지체
##och
##umber
##ipp
대항전
ATC
연예계
네이트
더러
디나
로사
심정
작년
적십자
직교
##위치
프로테
청년회
Ben
과격
모신
비키
서지
의정
타쿠
##거나
##urch
출판물
과자
남아
번개
벵골
연화
후루
##동맹
수비대
서스펜
UTC
릴레이
매도
묻혀
스에
캐논
##림사
##알라
##ops
NA
국세
연달
헌병
##ME
아이젠
고등학생
관심사
##mann
에이전트
경지
명상
방탄
상의
서점
수레
에겐
영미
유화
키드
##vent
다가오
오르간
cc
객실
고찰
미지
숙박
승정원
##일치
데이트
Mil
West
nm
반론
병단
병과
보어
##zy
인지도
1857
플루토
아우구스투스
내란
분별
소피
시니어
워스
임하
##angu
##루엔자
Mat
거사
로시
메드
안기
처장
##시대
자유형
거쳐서
##unk
창립자
Ju
bl
가방
괜찮
그물
농성
모티
엔젤
팔꿈치
##다발
##lus
##제비
##렐라
레인저
남양주시
가모
서아프리카
##세우스
##날드
가리켜
였음을
히타치
아나톨리아
당파
반정부
버트
불로
에코
잔존
텐서
파주시
포천
##정사
##질렀
1798
세인트루이스
rec
두어
손목
시온
여대
웨어
유망
지요
##조사
참가국
공군기지
클러스터
라벨
멋진
승하
취할
패해
##뜨려
340
1854
1815
래리
변광성
참패
치사
키타
페레
게임기
운동량
연주회
엑스포
차가운
근방
미에
수급
악당
페드로
##세키
##사와
##퉁이
쿠르드
이와테현
주고받
앨라배
Act
trans
그럴
넘겼
농가
동거
두스
등단
하중
향신
##전선
##방향
감염증
MD
고생물
나일
베오
승지
시역
징집
커리
##화경
수도회
AMD
인플루엔자
##레타리아
프롤레타리아
경희대
FS
Sound
바쿠
악명
야수
어촌
후면
##단지
##플레
##내티
##합중국
신시내티
교파
다쓰
바보
조서
쿠마
##미쓰
Max
Richard
PA
간판
교훈
시미즈
원문
체하
휘발
타이탄
저지른
줄어든
How
다량
문정
미켈
수증
원사
위크
잉크
자켓
캐슬
키트
포대
##양이
Project
갈라지
사각
신의
젠더
코로
탈레반
텍스
투신
조각상
South
##선거구
ft
간결
단수
보그
사주
생길
숙소
실사
연중
와세다
유골
축일
행해졌
게임즈
오스카
호소카와
토요타
모국어
바덴
시진
염화
##뮬러
##ility
브란덴부르크
군자
성대
스킬
티저
회유
##iness
##이치로
안동시
White
CT
교서
당당
베크
벤츠
안톤
전멸
중용
진언
토록
특공
##야누스
##북면
##놀드
##ars
1855
삼국유사
시마즈
회고록
Mad
국화
변질
비료
##혈구
##날레
사이언스
Fla
균일
셔틀
쇼팽
지린
참수
패킷
가르쳐
트라야누스
마흐
산신
어부
요도
침식
풀리
헤더
##IF
특별법
##idge
유엔군
무사히
발기인
콜럼버스
항생제
Dig
Not
거시
괘불
니까
대목
로잔
직렬
질투
토바
헤겔
##마디
##화당
프리츠
스케치
스케일
보컬리스트
Ca
mus
강인
경화
능가
절친
충칭
캐스터
토사
행군
##나주
스피커
끌어올
신기록
국인
레티
리나
영락
원한
자부
청취
표출
##부로
##작전
##리아누스
##크라테스
중생대
Europe
종업원
결말
루피
수시로
심플
출국
힐베르트
##gon
DO
Im
논하
닉스
박재
백조
변한다
본거지
온실
이랜드
지치
허목
##러져
불가피
금색
다자
무가
바투
사하라
서위
옥천
진주시
트레일
##xy
##방군
##레이트
예언자
브로드웨이
당뇨병
FR
class
미합중국
사드
오도
오니
유이
##넌트
##참찬
그린란드
꾸며
로보
일차
입히
최하
터너
##욕장
##패드
보유자
알폰소
기린
디바
부풀
성품
슈투
용수
포탑
##tein
1839
Long
완만
유구
강력히
테크놀
박영효
##rown
몸돌
시제
차림
트레인
##두사
프랑스와
1789
##IVE
가이아
KTX
리시
머큐
빌드
생몰
아칸
유자
자질
정글
리스본
신한은행
시즈오카현
계룡
당진
독살
로큰
메모
종가
컵스
허베이
##LC
베르나
레지스터
모자이크
Power
됩니다
모치
방울
에리
열반
인대
정박
초회
칼륨
현과
보호법
김성수
컴파일
kW
나시
라스트
매듭
뮐러
샤르
재화
리그컵
부여군
예비역
크라운
바나나
바닷물
return
교화
됐으나
모사
세일
여정
집어
하수
##ally
오리엔
라면서
친선경기
조선왕조
부등식
사미
시의
자네
##VID
##tim
학술지
세미나
로드리게스
걸음
도적
마레
사대부
아뢰
예멘
자루
차오
해트
핵분열
##구나
##비에
반대편
명성황후
호흡기
나리타
일렉트릭
필사본
Get
RA
구타
규율
복부
유카
익스플로
로큰롤
익스플로러
레크
부끄
키리
팔작
##ones
아이치
##ady
사무라이
노르만
도망쳤
면직
은밀
일선
충신
코이
폐허
사이즈
Top
공학자
뉴기니
매슈
양지
포니
##arm
라이베리아
org
건륭제
미첼
스펙
아노
양서
이카
##대전
원자핵
나치오
즐거움
MM
기판
변혁
송진
퀴즈
판명
##시아드
프리드
비스마르크
pri
기조
며느리
빈민
습성
실렸
쌍성
어사
임종
컨벤션
타일러
##세데스
##곡면
1400
담당자
유니버시아드
Aut
근세
루도
바늘
박원
비둘기
위트
콜린스
##산부
메르세데스
뉘른베르크
대타
불복
서클
의복
정오
타나
국민학교
BR
달콤
리타
미트
삭감
수마
스택
접미사
최남
크메르
##시게
1851
1814
파스칼
부적절
성폭행
영유권
Hy
등산
베르트
세스
포뮬러
##ery
##apan
구세
국력
기마
뉴멕
애기
자처
차명
추축
310
##uct
아나키스트
뉴멕시코
고스트
볼드
사탄
착각
클랜
##사유
크리스티나
채권자
Land
ha
구루
몹시
상식
숙련
승률
친환경
##라르
##테랑
NHL
테오도
레몬
설리
유충
이질
일간
친한
포자
##tain
##링겐
##몽골
##ano
바이마르
단역
영수
자키
주나라
카보
교토부
오토바이
반감기
광둥성
AE
Hist
돌고래
리온
미끄
민심
양군
##생산
1849
Young
정해져
개표
기한
노원
사귀
아쉬
조비
코바
흔들리
225
고요
골짜기
델리
라임
레스터
법규
이길
인스
장조
컨퍼런스
키로
통찰
피살
구단주
유니코드
여객기
금강산
Cre
DOS
NBC
겨루
몸체
바야
율법
자취
중견
케이드
흥원
1820
데뷔작
스케줄
바빌로니아
매킨토시
현미경
Sn
니트
봉하
부관
블랑
서약
아연
저그
중남
토유
##세르
##GO
##절도사
##범죄
##ration
합성어
##에이고
받침돌
개그맨
샌디에이고
머큐리
Pet
골라
동탁
두뇌
베티
스펜
실상
이심
저스틴
타라
##ues
##era
##사우루스
EN
결여
길러
나토
레코딩
싱크
연해
유림
조동
헤센
혼잡
돌아갈
1846
Island
저널리스트
볼프강
IF
극소
라지
로디
목장
애드
울트라
자위
타밀
형주
획기
##인산
##루즈
##alk
이주민
장갑차
관위
냐고
선상
싫어
집사
출품
캠벨
학급
##90
208
##led
내려와
통신망
밝혀져
이케다
맥아더
Sy
Vir
면담
불쾌
수만
자존
첩보
카파
템플
피질
##ny
##르산
##기아
##장조
365
조각가
USA
Grand
교감
논산
마포구
보디
소포
합체
##엽수
맥스웰
CA
ED
MT
op
망치
외척
호그
##구스
##OU
##연구
##ality
오프라인
함경도
간호사
강대국
글러브
파푸아뉴기니
서바이벌
날리
박찬
새겼
샤오
수역
신병
외면
원단
이목
잠입
최성기
##히데
선거인
##aceae
Google
North
Cam
고제
늘려
서안
소박
Beat
어도비
Rob
나쁘
모체
애착
평방
표트르
##시험
##ions
상반기
Pi
기공
리안
맡겨
매디슨
사할린
재보
트림
##더링
##스코리아
다면서
그레이엄
Roy
페널티킥
로페스
Wr
배당
병풍
아스카
중일
푸틴
활기
##ook
##중추부사
207
조선공산당
통계청
##ather
김두
꽃잎
날려
열악
##보라
##의식
##블릭
지나친
사라져
지하철역
머물러
혼합물
수백만
글로브상
순식
절충
패망
##부대
교육감
재미있
마조
막강
문체
석기
양극
예금
할로
내세웠
골절
원점
##선언
##우주
##재판
클레어
7000
안드로메다
여수시
애틀랜틱
팔작지붕
병렬
상환
이희
##로트
##탄두
일부러
올라오
게이오
풀려났
BO
val
갑각
개기
네브
정실
퇴단
##모음
##구니
##박사
쇼핑몰
KD
라울
마늘
소르
아놀드
야권
에히메
염두
월화
카리스
개화파
뉴클레오타이드
EMI
House
Rain
가뭄
사와
수당
열세
옥사
출격
취직
펼친
플랑
##티지
##ily
##irect
모니터링
흐루쇼프
강습
베다
이크
일주
후회
##니에
##13
##rie
게이밍
내세워
Tre
다룰
대류
슈미트
용지
의주
젤리
향수
##양구
##ental
프레슬리
찾아와
##EEE
겸직
기행
로베르토
방학
이끼
잔혹
축복
타파
##GB
1852
대수학
안드레
김해시
HS
광배
변해
여럿
정칙
케리
포인
##보당
##IX
합병증
League
파라오
클레오
로스트
보우
아레
지카
##이에
708
글리제
송파구
type
미러
변성
쏟아
안중
엄지
에노
파고
##LL
##건설
항공편
##스크림
지하역
페르시
Cat
SG
뉴올
문맥
세가
지령
터스
##데기
##HL
##수염
이론가
휴대폰
OK
데일
문관
밸브
불려
상설
실명
오릭스
의성
클로드
하지
행선
##바퀴
카스텔
재결합
규약
나기
시찰
야코
##to
사망률
중앙선
집단군
통계학
물려주
Bas
격하
테트라
해준다
##스퍼
##14
##텐셜
파르티아
기생충
안양시
fe
논증
동호
묘호
무능
산체
앙드레
에볼
준동
##세서
##신저
##악산
보이즈
순식간
동군
로타르
백지
사다리
예식
자백
족장
패치
##레도
##소문
##황색
준다는
COVID
du
net
로망
생원
속국
안심
왕래
총생산
퍼텐셜
##크리
##쿠사
##암사
##찬성
##출력
프리큐어
못했으며
근본번뇌
Boy
몽고메리
뉴올리언
Bur
Hel
IEEE
거창
근위
외할
해질
##큐슈
##ama
카디널
ER
로컬
미스코리아
발착
아킬
월남
은폐
이룰
전조
콘라트
테두리
##레트
아우르
동아리
DA
고을
내릴
레나
버밍
율리
이윽
코크
타트
품목
하강
##vis
##iter
중앙아메리카
분류학
항공대
외계인
영등포구
이윽고
거머
교관
발광
술라
실효
자성
자장
재회
##구미
##YP
##계사
클라리
아리랑
시그마
로버츠
tr
경합
우디
토피
##ij
##va
##과학
교육학
370
tvN
사학자
우표
클라인
화소
PH
Ter
도치기
바니
박용
싸울
##공화당
##ouble
민주공화당
Home
코우
튀어나
폐교
한민
후이
##투리
Show
인류학
레닌주의
공주시
금정
낭비
로저스
모피
방호
빨강
정강
탄수
##하우스
Ann
병자호란
맞물
변천
빈센트
성행
수은
오마
오징어
##벌리
관찰자
라플
브리스
선체
유틸
충동
##alth
미시간
유틸리티
system
결전
되풀이
박경
발터
생쥐
카로
##ford
##해방군
##바드
인민해방군
방문객
다카하시
고문서
##oney
##이즈미
TG
가온
몰수
선별
쓰임
찌르
침범
펭귄
1853
여우원숭이
채무자
강희제
향신료
fl
min
빨라
잉여
집전
징후
철기
호시
슈퍼스타
고분자
성폭력
가환환
Peter
노카
상계
윤휴
코린
페스트
##ures
아파치
##로그램
펼쳐져
메트로폴리
메트로폴리탄
서체
아끼
안팎
어학
에세이
원주시
##18
##ense
브루크
무지개
만장일치
곤살
진이
표제
##데일
##네르
오리건
우에노
Joseph
BB
버스터
비어
산문
안창호
투니
##ex
##min
주거지
오아시스
가세
복속
사중
장정
장경
추운
태안
퇴치
투사
연속극
가졌으며
시달렸
엔지니어링
석회암
구라
돌렸
비옥
스텐
암수
애호
이홍
츠카
카인
자격증
막시밀리
May
do
군복
논평
여포
올릴
##ves
##고사
##15
##ов
사무엘
1844
440
1795
멀티미디어
트럼펫
바그다드
경순
디스코
모션
소양
알칼리
예보
우니
잠비아
출사
카토
##mas
##HS
##매기
##남면
##ople
책임지
가로막
CoA
Fire
man
리언
불태
순천시
에페
의제
이가
인성
제지
확충
##방스
게이초
지장보살
순교자
도형
문중
발판
소인
소노
수프
제방
태블릿
퇴출
회차
##민당
##17
##행파
이사벨
알렉세이
1793
MLB
Run
YG
가변
산조
우타
의인
이만
콘스
하산
화승
휴일
물러난
우두머리
청문회
Type
공석
남단
노마
롤러
미겔
박동
아요
양평
쫓아
청중
효모
부르봉
1847
자카르타
Society
850
us
공문
다쿠
달력
배워
생년
서당
스플
카펠
화염
크리스틴
목표물
1792
가요제
두드러진
기권
단발
도안
반달
블룸
사생
산술
순찰
썼으며
왜군
일삼
잔여
처칠
호이
##촌리
묶여
이부
창구
하층
헬스
##FS
Science
Class
오메가
직사각
Bill
단양
실베
여관
외손
체로
쳐서
총영
##보내
SW
Ul
게놈
되살
바레인
버니
오와
정승
티오
푸젠
피자
##다보
##제철
아이스크림
정치국
강화군
갈릴레오
금관
농담
레딧
리노
바타
배반
색계
속초
아로
잉카
적법
제비
##line
##섬유
##ander
고다이
루카스
바쳐
산재
애프
요직
원효
전범
짝수
헌종
##da
##티어
여러분
Arch
메모리얼
APG
강좌
권익
성교
소량
울루
이유로
제니퍼
농경지
생몰년
Japan
결장
놓치
달린다
로지
북마
킬러
##진보당
##은사
##일기
무사시
기울이
오하이오주
공경
페라리
한겨
호로
지리산
이성질체
Jul
경내
과세
도파
도끼
루드
무예
석권
홀수
Stand
전해져
1803
1836
결의안
스틸러스
천도교
테크놀로지
Di
public
느슨
응력
태화
##네프
##계약
##그램
##형제
가져가
전시관
국방군
##ART
콜라보
도네츠크
Na
pre
난쟁이
대혁명
시력
안시
안겨
양천
외삼
폴로
##oon
##분투
라이센스
480
선제후
조르주
Baby
고층
김도
내시
니즈
매기
반입
발진
부기
불능
한복
호적
한국군
212
서비스업
Cons
수영장
빼앗기
Cup
Little
감축
강국
경원
끔찍
멜라
요가
이문
조석
타다
##트가르트
##컬레이터
스타드
에스컬레이터
Corpor
슈투트가르트
CL
MIT
김주
마코토
변론
압수
엘비스
오차
저질렀
정언
##록대부
기본법
원정대
동백
시성
시타
앞바다
입찰
퇴진
##하우
##무장
##에쓰
여행자
##obal
##ING
돼지고기
손꼽히
First
공병
놓였
루가
무쓰
소주
즐거운
##스톤
##가요
##뜨린
아키텐
예배당
IA
노라
무진
민원
스팀
싸운
알로
천자
치마
효능
##울루
##BL
238
유가행파
일렉트로닉
북대서양
고승
김우
북인
안주
양원
영종
쿠시
##피크
##eration
##oud
알아차
갑작스럽
노르트
레저
세제
에이지
정중
진심
##더릭
아니면
430
시공간
구전
꽃차례
끼친
떨쳤
문물
백운
시발
실은
아누
용맹
정역
통솔
학당
##츠부르크
##adem
스트라
알렉산데르
##other
한겨레
금기
기피
도부
로코
사산
지크
추밀
퀸스
##주크
##99
##버터
군주제
개막식
불러일으켰
function
갇혀
나한
도야마
뚜껑
북측
카일
##완다
유명세
##ube
그래픽스
콘스탄티누스
Green
Tor
걸스
곡식
길거리
모교
선과
어라
##티보
##대비
##BN
국가원수
##ida
챌린저
헬레니즘
Div
금리
부락
소론
승낙
이색
체리
초계
환산
##IO
사무관
올라와
##ava
다녀왔
비엔나
카디널스
견습
성조
솜씨
시편
오인
지검
춘계
해커
##노르
##ograph
신호장
루이즈
환승역
미주리주
김시
도보
억울
칠성
테헤
통도사
##고로드
##어류
##ape
##IDS
매트릭스
RE
가령
다윗
도매
롤플레
무위
미망
베가
소서
쓰일
재물
청정
캄파니아
##마을
##CO
##스티안
자이언트
바뀐다
콘티넨
롤플레잉
up
차역
호화
북극점
관음보살
스테파노
Like
군기
대입
더빙
뒤덮
미트라
유창
##열대
##프스
##훈련
##ulti
str
동남쪽
Hello
Que
가선
금천
너희
대여
비싸
성형
안면
읍성
자갈
척수
평하
##lat
##하마드
히로시마현
바실리
##formation
광동
망가
범람
브이
스완
인계
흐트
1776
이회창
컨설팅
self
동급
마취
모잠
무주
문어
조봉
커브
탄력
함장
희미
엘리엇
##노스아이
오이타
실린더
쓰촨성
타지키스탄
루키우스
부에노스아이
모잠비크
부에노스아이레스
Down
거병
교재
귀순
불릴
사스
소아시아
장지
콘퍼런스
##ister
##ada
연대장
요시카
접근성
미성년
고생물학
플랑드르
Del
Plan
Vic
imp
가우스
구가
무정부
미코
북송
셰퍼드
아람
위축
으러
은지
타선
퍼플
1837
브레멘
Battle
Law
Mem
Son
el
당상
버거
슈트라
예제
줄곧
컬링
토프
트리스
풀백
핵탄두
홍익
화원
##바이러스
ICBM
뉴올리언스
mac
경구
듀스
바바
어지
오슬로
왕당
전서
점토
정해졌
후견
##동원
여주인
스러워
아키타현
스태프
제노바
갑각류
York
관개
누마
명왕
무공
서품
셀주크
숙명
조우
지킬
호찌
##크트
##시아키
가치관
찾아오
엄청나
사이클론
비단털
경부선
General
##프랑스
슈트라우스
고관
금환
니치
따지
문수
상피
소마
스쿼
주포
중거리
캅카스
쿠루
##댓값
베르사유
Spec
Records
아브라함
비단털쥐
Cra
노역
디에고
배타
부엌
비긴
세타
춘천시
화이
##디드
##UI
##운수
215
##ize
알파인
구청장
무형문화재
최진실
Bri
Lin
Luc
PM
##둘러
214
지배했
떠올랐
플루토늄
Dark
상회
선단
알마
엘리스
천적
##레미
##학파
영화관
스타즈
에이브
사법부
출장소
개척자
어드밴
##sych
넓혀
멘델
수아
온전
유세
유계
즉흥
직권
진구
히코
##bor
##라과
##25
2500
라이드
Inf
1791
Fil
Gar
Ha
KC
격전
곧이어
군도
균등
네바다
던전
맹렬
수주
역동
총감
호국
##쿠치
개최지
크리스탈
대대장
im
길버트
독신
잡힌
침수
##다임
##링크
학년도
no
광서
나바
르완다
수라
수표
양념
영도
유보
추장
##초프
##슐리
##스트림
290
물리쳤
남북조
레닌그라드
대관식
미시간주
나투
도나
산인
시로
이트
조율
체질
트론
후추
##신경
선거관리
돌아간다
##ider
변호인
여운형
선거관리위원회
Year
군림
닷컴
동두
두부
로널드
보육
수족
영사관
울주군
입혔
튜링
##주사
아이파크
That
1842
고지대
남극점
패러다임
ET
관저
록히드
무루
안데르
알베르
전봉
타키
트롤
##데오
프로필
1832
참전하
안토니우스
바빌론
##그라운드
니카라과
cl
국문
로런
부트
슬러
유상
익히
카다
콘셉
레이건
광합성
문건
사병
정에
조회
조던
##모닉
##orld
##라이스
생물학자
한자어
실리콘
라그랑
es
가디언
감당
삼거리
센타
스킨
식이
화교
수도사
아우구스트
아드리아
RCA
넓히
동체
라쿠
마도
무찌
생김
코일
피그
##uf
권투
비고
시영
영성
중건
쿠사
허물
##장사
만주족
Frank
Game
고후
고바야시
김학
남경
도자
라테
리서
리지
만류
상층
앙상
에레
원곡
아이작
대사간
독재자
디렉터
셀레우
서태지
ag
set
군락
매니아
무겁
앞뒤
양정
양산시
주스
죽일
커넥
콜리
폐차
포상
풀이
학창
##버라
##lation
##ents
스위트
State
테헤란
기시
부화
에탄올
##게이트
그러면
자본가
사우디
강릉시
마운틴
공성전
NX
교명
노골
뇌졸
뉴잉
도읍
브람
수문
안철수
원만
코딩
##ker
##화산
##연맹
##반트
잠재력
카지노
랴오닝
Sim
능숙
마른
상이
상감
특명
##정변
##지대
##구멍
사가미
호기심
피드백
미망인
균열
산정
산동
수화
해머
했으므로
##주석
##팩스
조연상
맞대결
귀여
노름
따돌
소드
이씨
초판
투기
1300
세웠으며
나카노
테크노
디아스
솔직
쐐기
윈드
호지
##레븐
##수지
##핵생물
국내선
페이퍼
희극인
print
Jour
거문
교학
딱딱
말려
받치
세밀
수질
자석
진천
처마
투병
편모
해주
힐스
후반전
근간
두르
듀엣
블레이드
오웬
와이어
일면
장강
휴먼
흡입
##시카
모델링
플로이드
동의어
##velop
막시밀리안
도표
루손
발열
본존
제타
주군
폐하
행운
호투
##ni
프로그레시
223
시에라
TOP
프로그레시브
Port
두터
리바이
법상
보국
부천시
완장
이한
주유
피쳐
##당류
중앙일보
음식점
Web
Dem
브론
양구
엉덩이
왕좌
피어스
형광
후베이
##능력
태어날
222
예수교
747
관아
동대
반납
부식
셔츠
엔리케
풍요
##가키
지방선
211
광주시
1841
대제학
불문
사체
이설
전열
촐라
##흐트
교황령
기울였
해수욕장
끌려가
베오그라드
뉴잉글랜드
그늘
니스트
당장
멘토
세관
아드리
##WS
제시카
Conc
자오선
아오모리현
내기
왕명
용역
황위
##for
##파니
##자드
다카시
플래닛
부사장
da
과감
구비
동률
블러드
수구
안데스
이코
환초
##면적
##umb
제품군
1796
이광수
백두산
브릿지
Oper
mg
무패
서곡
스틱
습니까
아호
을수록
칠곡
허버트
호박
##산업
Leg
아칸소
Les
mi
개경
관군
구인
무소
미우라
아민
은평
적힌
캔디
클럭
통감
##커우
야구부
판매고
병원체
대법원장
해수면
개개인
뇌졸중
가전
과달
담양
미타
반향
잡혔
즐겼
##데냐
##포리
##ely
베이직
비행사
사르데냐
단말기
거품
눌러
매튜
사파
쌍용
윤곽
지남
지날
포틀랜드
##레틱스
##til
유럽연합
##rip
Service
애슬레틱스
앙상블
광시
미디
알베르토
양동
요셉
##ges
##토쿠
##블린
##덱스
301
##리오스
Moon
마에다
하시모토
Mel
pol
내몽골
빛깔
아루
어인
에다가
오우치
현수
##gar
##샤오
##일체
생산자
드러난다
##사이클
전망대
로베르트
만물
미자
베버
성현
쓰리
열람
정직
진위
택하
틀리
하후
##마니
##vi
##레앙
##반정
이루어질
동일시
도망쳐
리바운드
Christian
탄수화물
김덕
모태
미완
아역
정청
코넬
탄두
파피
##니츠
프로방스
##use
##rib
Research
GPS
Ham
강했
도화
슈바
우기
이베리아
자각
접시
##테일
##불명
보아
사연
열거
의논
이보
이창
인문학
임실
전곡
지브
콜론
키아
한하
##나들
##장군
##랭크
221
1806
넘어서
아미타불
후유증
필하모닉
var
대소
렌더링
모식
손수
융기
인척
화풍
##민정
사이다
올라왔
한정판
붙잡혀
Lab
기형
미녀
본당
안락
제이크
채집
캡틴
탄성
토드
헬로
##ware
방법론
파르마
Pan
가메
갑신
강가
강타
고갈
니체
라사
변조
아구
암스트
이세이
카노
키치
##레르
##남동
제주시
##aker
FF
ME
Ros
Under
동아프리카
명동
발작
양위
이석
증류
후시
##신보
##스틱
##태자
기타큐슈
대정
드니
떠돌
얼터
예편
후난
##로세서
##get
##코스트
##59
##득점
이치로
브루노
버지니아주
조용히
클라이맥스
지극히
간지
깊숙
마피아
만연
보주
예문관
책정
하모니
허구
##ск
##레이즈
건국훈장
불법행위
명륜
작자
##즈미
자치현
아즈마
Party
스텔스
에두아르
서스펜션
Human
공보
군산시
김은
리하르트
벨로
인먼
조나
##지먼트
당했으며
노스케
예비군
매니지먼트
의병장
FBI
HIP
Imp
Now
규합
노화
돗토리
미요시
사일
소진
에스터
재심
조제프
중신
지반
피시
##IST
##무제
선수상
232
재판장
천문단위
1831
1790
레오나르
펼쳐진
혈액형
고는
담수
로제
반정
사악
에뮬
죄인
케로
##uter
##라나
아르테
##order
1623
바닷가
##OVE
보행자
담임
랜덤
매복
발췌
차차
코지
하세
##uz
##무지
##박이
Station
1794
주둔지
모터쇼
해인사
다마스쿠스
OH
car
굳이
깁슨
변했
붉은색
알베르트
오랑
장이
탄광
환기
##던스
기념장
1835
브루나이
선보인
##rick
und
교란
변함
본능
봉헌
어둡
유관
진성
트러
흉내
##이상
##코비치
##omb
되돌려
안티오키아
왕당파
Mid
가결
노엘
농협
로로
루지
변한
사목
신궁
첫날
팩토리
##WA
##운전
##aven
1799
##ible
플래그
##제르맹
디펜
보카
산마
야만
월경
인삼
증축
##스텐
##무실
주제가
Rep
코미디언
오토모
TN
강자
그람
어쩌
의왕
일보
청일
테드
폰트
하츠
##컨드
정보국
벅스
생제르맹
세울
장크트
조엘
코인
쿠릴
항전
##ms
##캐스트
프로이트
대학살
이어질
올라갈
레즈비언
주세페
꾸몄
대방
먼로
약품
코디
특례
헨드
흑색
##현실
##ан
내려갔
리치먼드
연금술
720
go
골수
기일
냈으며
대용
메신저
승마
유독
집적
충주시
##래시
##황제
경비대
고고학자
##UCN
서귀포시
Corporation
공평
그로스
미혼
수잔
워낙
으뜸
지회
##도감
한다며
##unt
네덜란드어
진정한
연습생
윤치영
송진우
Jr
궁주
섞인
세컨드
소크라테스
아토
오호
원생
창덕
타오
파출
##높이
##omen
깨달음
압둘라
키르기스스탄
But
누에
독소
득실
로어
마거
서아시아
슐레
쟁점
츠나
코레
크라스
##트로피
##프리드
##ological
항소심
선거인단
IUCN
MR
Ol
기교
모였
박태
분홍색
사조
접목
카불
카오
캔터
퀘이
현관
##투르
##월드
##회원
##랄드
천연가스
동북부
드래곤즈
라이온스
플루트
감마선
사천왕
미식축구
PK
고독
다채
도식
동티
제고
##무트
건너편
트로츠키
알레산
조광조
Da
gen
과부
베테랑
우이
웅진
웨슬리
직각
케도
패드
히다
##금속
##니언
##는점
##빨리
들어선
토론회
합쳐져
보라색
Aug
군집
날아가
바사
열망
영문학
유민
출정
##오드
233
##cher
연방군
행해진
니가타현
Cry
Hal
실책
옹정
왕릉
철근
코니
페터
폭주
함의
1843
명명법
크레타
격화
결투
공지
기근
대등
산투스
소켓
송이
최용
최순
탈피
테살
혼돈
효성
##사랑
##여지
##젠더
##촌동
그리드
다이나
태양광
Carl
케이블카
평택시
지평선
암모니아
OC
견지
구애
군위
넥스트
도난
메이트
서역
의대
이국
초석
할구
##평면
##살바도르
중앙아프리카
Child
사라진다
체육회
원종공신
Hall
UK
out
갑상
노무라
습도
왕녀
정량
직할시
치른다
펀치
##피카
##ington
영장류
지석묘
남아공
겨냥
기악
술집
아쉽
총수
콤비
탈라
##자락
1100
EV
Pap
국무부
덕수
세도
쌍방울
에인
엔트로피
용문
제헌
체첸
행한
효용
##든가
라이즈
항공우주
Church
char
브래들리
RPG
암스트롱
NO
건네
굴욕
신안군
연하
테이크
##ror
##ón
##lad
어려울
감염자
폴리네시아
트랜싯
사탕수수
스펜서
조봉암
EM
NAD
app
강구
달마
레르
승선
악의
엠마
음역
통킹
허난성
호전
##루리아
돌아올
정확도
프린세스
카테고리
IEC
JS
결단
기네스
대뇌
로젠
미로
바하
실태
어쿠스
줄였
필리스
합산
히말라
##lish
##레이스
스타인
알렉산드라
나눈다
어쿠스틱
Master
are
관원
구명
궁수
덩굴
롤리
바이스
선서
앨버
에든
중학
추축국
에든버러
Fin
국산
깨지
농작
라몬
반야
버즈
부탄
양평군
외가
익산시
##RA
##던지기
시간표
레이어
def
1821
모터사이클
begin
다행히
TBC
강유
리카르
베아
사보
안건
약수
이게
전극
주상
##의금
오스트로
##une
선언문
하이든
1845
Sport
아세트
게오르기
Sub
나날
날렸
데인
비올라
석재
셰이
오른다
초당
코노
학도
현청
##DI
##식스
##ᆞᆷ
##arch
생김새
Sl
교내
기욤
던진
마고
맞닿
선지
시차
액티브
위태
율령
촌의
포섭
##스테
독립선언
390
시나노
이마가와
리얼리티
카리브해
JP
개축
고질
더라
레미
보츠
오목
음경
장서
전집
한가
##베인
##하르
##oma
알레르
스와프
ob
데포르
사옥
악역
엿볼
인신
춘향
출병
쿠리
클루
필로
현생
##ied
##gu
##심원
##가하라
##퍼트
##활성
##ict
혁명가
나왔으며
쓰여졌
LCD
산둥성
마그네슘
수증기
Hill
급사
내게
명중
베니스
베드로
병인
선데이
소도
우도
유재
육아
티무르
페인트
표어
##고양이
보호구역
통신부
목포시
주머니쥐
투르크메니
아쿠아
배트맨
상파울루
투르크메니스탄
TA
갑오
경산
녹말
늘렸
매춘
몬태
산남
수스
식도
음양
##나비
##리어스
스티븐스
all
가극단
디나모
간디
결렬
관대
변속기
산탄
센다
속보
열기
자가
직류
팀장
해일
##로아
##보스
##씨식물
##후이
연구실
##als
언어학자
이주한
전동기
##burg
오클라호마
히말라야
void
국지
맞배
수선
요나라
정현
코다
펜스
포즈
프록
핼리
##토바
217
231
초등학생
이오니아
건널목
라쿠텐
SI
데니
라티
만수
부안
비방
생포
연어
영아
옥상
이형
탈리
하카
헤이스
황하
##팔렌
##뉴스
프레더릭
후쿠다
마쓰모토
Mach
후임자
트라이아
롬바르디아
Fed
cell
med
결실
광화문
군량
김장
불길
새해
퀘스트
핵산
##시간
조합원
프린터
미에현
마거릿
감탄
개리
남포
리츠
성찬
신안
예일
운석
유감
착한
##처럼
상대론
1804
1810
##슬라브
##ATA
이지스
##중국해
클라리넷
셀레우코스
Sol
key
꾸미
니나
도량
불평
스톨
엠블
천리
천태
헬렌
##레프
Dev
시킨다는
저지르
시아파
Andre
창업자
머피
사계
손바닥
스팅
어쨌
월북
이근
임업
종주
충고
틈새
향로
##ios
##uel
##러기
##경찰
##팽이
##itor
아르바이트
시게루
안재
커티스
##ville
##테롤
받아들일
펼쳐지
급속도
어리석
UF
로런스
릴리스
분담
생장
소탕
스쿠
아산시
약제
요네
총국
출항
키웠
태상
파블로
##모프
##mon
##피에르
쫓겨나
어드밴스
not
격상
드레이크
새턴
실크
애매
장론
진하
총액
한라
헤지
##cil
##갱이
239
프로토타입
모노이드
샌드위치
중서부
서대문구
구토
남로
당사
비슈
수훈
이구
조너
특위
##자나
##웨스트
##비우스
737
무라카미
유공자
Us
gl
log
궁내
그간
도야마현
면하
성제
이철
인노
잔치
출루
##디우스
##NS
##길준
##enz
##amb
크레이그
헬싱키
포인터
EL
Every
Just
국명
노다
만기
몸집
벨벳
본진
볼륨
비오
살피
우사
종단
지팡이
##ias
##지스터
##동리
##바스
나와서
도쿠시마
적절히
글리코
무너졌
카롤루스
캔자스시티
세키가하라
Digital
수마트라
데포르티보
Fall
Jac
공덕
내수
소정
완주
위배
자막
전란
##체어
자동변속기
다면체
Edward
정사각형
구마모토현
폼페이우스
European
산체스
브람스
OP
김석
두더지
명장
모질
비욘
승전
신천
언젠
캐럴
##선교
##24
##actor
세포막
도망가
노트북
Pres
트라이아스기
NK
격침
끼워
만석
세실
역모
좌랑
향한다
##자유
##전쟁
386
트랜지스터
트랜스젠더
나가사키현
태극기
리서치
CB
RD
공훈
구자
국면
남해군
들러
멜론
봐야
영위
윤리학
치루
풋살
##카라
##wood
##적분
##백색
##ury
학생회
폴란드인
겨울철
1834
교차점
유물론
가나자와
Ba
Camp
RF
게일
결집
공직자
알렌
토의
페테르
##UT
##사회
##inus
##ets
플레이스
##ift
이리하여
Ig
마신
비크
빅토리
신익
약학
치밀
휠체어
히브
##림동
##ering
남한산성
Louis
Network
Dec
Ep
Fer
MW
TP
경멸
구석
근연
보나파
이뤘
제법
페데
##GS
##86
##어냈
지방관
1813
생태학
거느렸
보나파르트
건안
고취
낙태
당명
순정
아명
청군
펠레
힘쓰
##HT
게임스
브레인
비로자나
토스카나
추밀원
Cur
고해
담론
랜디
로타
벗겨
암초
양분
요시아키
장차
전액
접착
종실
지느러미
특혜
##다스
요시노부
460
플라자
합쳐서
버밍엄
감기
김세
마틸
말린
시경
웰스
좌천
티니
페티
##마일
크리스천
베르너
농민군
Who
거머쥐
라벤
마태
맛있
민선
설사
아약
웨일
창씨
파노
페레스
핑계
하카타
Story
마이크로프
가져갔
농작물
마이크로프로세서
Ob
노총
레너드
수렵
아모
옵티
장승
정은
탈수소
해구
##ful
##기둥
##글러
##ison
나가노
Real
특이점
안드레이
##conom
조너선
간장
광택
메트
배설
보궐
설과
시냅
역행
템포
풍기
현명
돌아와서
구미시
MPEG
아미타여래
무척추
여주인공
시냅스
Line
공해
군비
기주
덧셈
서드
여긴다
오기
윈터
육식
적성
주치
직함
커져
##락부
출연진
##anger
Commun
황태후
데려가
시라카와
크리에이티브
FL
pH
도기
루머
마초
만다
민의원
북반구
분양
서강
소치
아말
어딘
유길준
으론
첨부
헥타르
##27
##평가
##패스
기독교인
파이브
증명서
루터교
샘플링
Sti
ed
간염
굶주
극회
남궁
노숙
라데
무당
세탁
스레드
아일
천구
토비
하순
##스레
##코로
##호프
##쓰네
##ency
내려온
취약점
정몽주
Mal
UP
납품
아픔
아열대
제보
켈빈
트랩
판다
한꺼
함부로
합장
##td
##질량
##ines
##니다드
트리니다드
레인보
초고층
##정보부
한꺼번에
데쓰
선회
솔트
수의
씨름
억류
청했
패퇴
##19
프로파
##rad
그래미상
아약스
느라
말소
미추
민권
북상
세베
쇠약
슬퍼
완산
즐겁
##pm
##싸움
##agement
가입자
프렌즈
네브래스카
Ray
고하
문성
위드
차분
프롬
##들인
##실험
지방도
##ional
1833
공기업
트루먼
발칸반도
일진회
미묘
봉분
인피
치수
티치
##less
##조류
베르그
유성구
DP
Mill
ROM
SB
갤러
국물
려다
마자
수강
풍수
##주니어
자연주의
##osh
은하단
노동자당
1805
1824
김종직
시흥시
Vf
내구
유승
철원
총체
파드
허들
홉킨스
##oom
##메트
리그전
주교좌
야마구치현
최하위
Sant
고압
드롭
디디
매질
바일
안다
야오
야행성
올랭
육박
재주
제식
지포스
쿼드
평상시
264
베르디
마그마
끌어들이
RO
군국
다라
도색
성부
언약
총살
취한다
탄화
##레토
##타니아
##ora
1597
포위전
갑작스런
##anguage
파출소
Dom
HE
교주
몰라
에린
에밀리
엥겔
지터
체스터
친절
톨킨
표결
픽션
##하스
##바타
사이공
혁명군
##나이더
상속인
##타고라스
##의금부사
낙타
도핑
반려
보훈
브롱
실드
실라
이삭
인테
증원
친히
케니
해금
##쳐서
##asy
올라온
여객선
640
원정군
Team
시에라리
언더그라운드
시에라리온
KR
국무원
남반구
데메
매드
명은
목화
목초
박승
석상
절대로
타블로
퇴계
퓨전
히나
##cc
##미치
##호르
1809
오카야마
Again
언젠가
950
LOVE
노촌
리포트
모기
베일리
신관
아핀
용접
쿠페
페가
할양
##mar
##기야
##26
##파스
##노동
##노벨라
##je
텔레노벨라
사카모토
시어터
Ze
로동
몰입
범어사
이효
정약
정년
키워드
퍼레이드
##거루
그리스도교
that
유격대
무궁화호
심포니
DFB
Radio
Last
다지
로자
버시
베컴
상시
센스
아코
영재
적재
카멜
평신
##티우스
##투안
##개혁
돌아간
오비탈
SQL
Vo
개전
등대
반열
비스트
상투
윤년
재빨리
종친
키움
토고
##거성
바로잡
이해관계
##iff
로렌초
기부금
Henry
다닌다
모조리
Hard
Kim
XML
구석기
노시
두껍
비참
여과
연임
윗면
이견
준하
중첩
포스코
하쿠
##건적
##너티브
받아들인
내각총리
Never
##하이머
에스파뇰
얼터너티브
내각총리대신
Jan
견훤
규장
기민
다뉴
도정
요안
용매
웨이트
잊혀
정여
칸타
팔려
포진
##티드
##IE
중앙정보부
산업단지
일제히
Def
저작물
거제시
아나키즘
소용돌이
가봉
경덕왕
구나
돌핀
미모
서프랑크
셀룰
신작
실화
유원
쪼개
틈타
평의원
합천군
화북
##누아
##든지
등록금
보였으나
에드먼드
프라이드
##학생회
델라웨어
조병옥
콘셉트
GL
Old
국문학
귀납
민가
바란다
변장
신명
연골
오퍼
음소
존엄
지뢰
총학생회
표상
현악기
훈족
##코인
모리슨
이와키
고조선
북극해
매개변수
전년도
Album
##tainment
미성년자
cor
교포
구급
버나드
아랑
원한다
장택
주술
콩쿠르
타고
하디
##소득
##케스
아이패드
인터랙
##osp
드러난
초대칭
그리스도인
무너져
East
단호
당분
메사
모레
미숙
베를
아그
야로
외동
요아
정공
칼레
토레
팬아
홍천
##28
프리킥
식물원
1802
워싱턴주
660
버려진
Happ
독실
리저
부이
비기
안구
에런
오에
와해
우대
위니
이안
이브라
참배
헤임
혈청
##23
##파트라
중심핵
독립국
자유민주
대항해
작사가
Space
1593
아테나
안티고
디렉터리
클레오파트라
Vis
괴뢰
김문
낯선
루아
매월
산불
성북구
숭실
열풍
오닐
이덕
정일
제스
콜레스
쿠키
포천시
프런트
##더니즘
##하이드
##오린
##lam
##ato
Dead
오이라트
목격자
낙하산
알레르기
DE
MX
River
걸맞
과업
깜짝
미팅
수생
원가
이학
증직
찬탈
카렐
퇴사
포교
해럴드
헤엄
##광사
플레이트
##소년단
410
Dep
랜드마크
1392
페더레이션
창덕궁
가시마
도노
라비
안달
에타
유시
재원
체임
치가
케어
파사
##네소스
##시우스
##재단
##바람
255
216
찾아왔
기뻐하
구운
기물
능하
북제
손쉽
어기
원화
호우
##깨비
##ume
하이웨이
오브젝트
520
보르도
성명서
최적화
리히텐
그레고리력
BMW
각광
구룡
범용
생사
성년
어룡
유루
이다
장항
퇴화
튜버
흥덕
##우어
##고트
##부미
##베이거스
유도탄
간행물
좋아했
수수료
##ference
Bet
경이
노년
모를
박인
본초
서던
수류
수첩
우랄
화신
##대성
##바꿈
##스트리트
218
계약금
전기장
차량기지
가까웠
준다고
##iano
라스베이거스
##ission
으리라
특공대
안중근
갑신정변
Mur
kr
가니
고택
금화
나눔
담장
만국
뱀파이어
셰프
수메르
심슨
준위
지난다
카잔
커트
호러
##처리
##막염
다리우스
클라라
무서운
콜레스테롤
LIVE
Pal
YM
괴팅
교묘
나주시
논설
벚꽃
수번뇌
엘살바도르
여생
영연
지소
##나물
##페리
##렁이
##ating
401
평화상
전철역
다뉴브
Aust
Mont
권세
권하
남조선
레일리
마현
민생
알비
일람
코민
##테른
##연료
##제사
마음대로
카이저
빼앗겼
AIDS
대머리
마세
벤피카
부녀
엄정
원술
잠복
##카테
비행대
공화주의
물리학상
##III
시부야
교직원
OEC
er
까다
노회
누락
리부
반가
발부
실습
임베
제이스
조력
추궁
##hr
##lev
외무성
사모아
임베디드
Saint
니즘
마마
매번
밀스
버퍼
본기
분쇄
슬롯
시구
아타리
웅장
장준
파트리
패미
필기
휘트
##오세
##버거
캐나다인
후반부
출생지
게이츠
##슈타트
변증법
조선왕조실록
WH
달라이
돋보이
북해
소홀
슬픈
오딘
이연
입출력
정병
최경
탐욕
##타라
##궐선거
##estiv
문화사
건너갔
1818
하동군
사보이아
재보궐선거
다키
대검
막아내
반다이
봉사자
연유
천명
치이
크래프트
타가
표했
##산염
##루이
##천년
모하메드
잇따라
러서는
모티프
IB
pla
sec
강수
듀크
상작
어판
우메
의종
총알
추위
출근
##니엄
카운터
560
피에트로
스포르팅
에트루리아
구어
니콘
다각형
변방
비호
시퀀
윤영
치중
패트리
##데하이드
##대주의
213
아가씨
Korean
America
대각선
Ga
Tur
UI
무왕
바크
발송
산토
성추
시료
에나
욕설
이젠
포에
현령
홀드
히치
##cer
##려야
##TN
##가쿠
##버드
219
보호관
에스테
플루오린
신익희
인테리어
Bal
계명
달렸
분장
살림
서하
음란
찬드라
클론
투데이
##nal
##모자
##슈티
##탐정
1808
##ondon
1636
Band
Call
over
결탁
단사
목걸이
발단
색인
서보
역습
와트
장구
천정
쾌락
폐암
해자
현충
##정권
##베를린
##타바
##전차
##lar
##asc
열렸으며
플랜트
소시에
다이스케
Entertainment
무척추동물
VR
계란
명주
박격
사흘
새기
액수
한도
##day
##uff
여러해살이풀
행정관
1783
스탠퍼드
참모장
##ethod
정말로
비대칭
사생아
레오나르도
EF
Vi
고운
망막
몬트
봉작
생가
섬겼
성채
음색
인출
정시
최북
##ky
##광선
하이델
Academ
이완용
방탄소년단
Nat
낙엽
만리
미오
박준
서천
서킷
소단
토토
포브스
##off
##경궁
##노헤
##재란
##증권
히로부미
스코프
비잔틴
마인드
퇴적물
정유재란
HK
OR
나츠
명지
박기
방조
본디
유즈
윤원
조위
픽업
##UM
##하워
한국독립
보호자
스테레오
프레디
부위원장
배상금
민족주의자
느낀다
아이젠하워
조나단
한국독립당
Coun
IG
귀양
낙인
디온
릭스
만찬
미안
방한
성내
셀프
압송
에리크
오나라
유품
일간지
장타
차드
착안
##이츠
##르모
##콥스키
진보당
프라이스
김종필
해설자
Micros
비정규
KST
걸치
김한
대양
레베
마정
맛보
벤저
벽면
석등
소란
시주
주둥이
찬스
청교도
캄포
태워
파격
페드
한서
화전
회중
후두
##이인
##슐린
테러리스트
Smith
레오폴트
에인절
OECD
벤저민
Gh
골목
괴멸
급습
나나
문교
베리아
비츠
슈뢰
우동
이공
중학생
투영
포레스트
푸시
##모습
##컨트리
224
프리랜
유니온
757
건국대
오카다
exp
서북쪽
Angel
노스캐롤라이나주
갖가지
노먼
단성
문하시
사죄
세나
아저
유폐
윤회
##리가
##서구
##니우스
메이플
불렀으며
빠져나가
크로스컨트리
Global
니케아
고이즈미
국과
로미
마한
쌓여
전륜
컨디션
틀림
##cis
##담회
##볼트
우승컵
부사관
쓰여져
석가여래
켄터키주
pe
강아지
몽케
바예
분개
새천년
썬더
오데
전갈
지병
창세기
포리
혈연
##하늘
##천국
지난해
세이버
##ender
글리세
##ski
Martin
Summer
캔터베리
가인
광경
도독
버블
브리트
빌미
소망
시판
지어
태세
##oe
##field
##well
##연대
일본서기
227
에르난
저널리즘
쓰러져
공양왕
대주주
맞배지붕
LD
개간
대세
배수량
성간
신영
열광
요세
윤상
잇달
한방
후백
##bit
##hed
서기장
엑스선
Blood
단기간
안기부
집어넣
레인보우
아저씨
long
감명
모후
사극
스즈
아만
에리트
욕심
우미
원성
최재
키시
펠로폰
후신
##다람쥐
##돼지
블루어
상세히
갈릴레이
펠로폰네소스
Far
Lib
디어
리빙
망상
망루
샬럿
셔먼
직제
한참
희박
##KA
##win
##에리
##랄라
228
1807
프란시스
사다하루
스턴트
걸로
녀석
땅콩
버릴
예속
쫓아내
토우
후각
##ür
##메데스
올랐으나
올랭피크
chem
공녀
나니
낭독
동족
루소
린드
속씨식물
이족
치앙
카쿠
포사
헐리
회부
후천
##ua
##전기
##쿠젠
##메네스
국민회의
스위프트
요시노
##ends
스토리지
Sky
비지니스
양서류
리히텐슈타인
Bi
FN
NL
Roll
고증
나시오
당기
도지사
비니
수배
오쓰
키라
핵연료
##WC
##행사
##돈나
##ico
교통량
관광업
중대장
CCTV
##브레히트
영등포
징병제
성추행
나시오날
논산시
반증
상체
세브
월리스
입안
출소
판별
호치
##dy
##ona
표준어
1819
세운다
SAR
간파
금광
낙랑
신구
이매
점심
존호
주경
추크
편하
해탈
형무소
##yo
##스탕
##마타
##버섯
##스트로
##ales
공사관
크리켓
News
돌려주
##코프스키
반공주의
유목민
LTE
TF
고군
국고
냉동
래스
레프트
려다가
수온
얼리
유실
정순
청탁
키요
트인
퍼펙트
호라
##uit
##덜랜드
226
275
경영진
가이우스
트레이너
엄밀히
성동구
글래스고
FX
London
관서
국채
기노
김보
대열
면접
배울
보문
부윤
살상
세일러
엘프
오두
외벽
유위
율곡
제원
지드
지기
콘월
탄원
##가야
##레알
##루트
##YS
##즐랜드
시설물
비트코인
동인도
소시에다드
Hor
균류
랭커
야르
어필
우화
퀸즐랜드
테츠
##29
##장자
##들랜드
##복음
서로마
1817
서남쪽
GPU
시우바
Liv
Os
경감
계투
교복
로스터
매운
콕스
##노세키
##봉사
아틀라스
미네소타주
인터랙티브
거액
명절
서상
시술
영세
우쓰
우성
이로
학점
자신감
##ette
기념식
클라우스
분화구
김포시
Fred
UR
가자
고타
귀향
난자
도나우
멤피스
박현
방수
식료
아쓰
인장
캥거루
크세
##이나
##재기
계약서
찾아온
권위주의
모모야마
Dance
공생
김혜
닭고기
라나
심신
아속
약국
여긴
옹진군
이프
장령
제학
처했
추석
팰리스
펩타이드
필살
혹독
##계리
표준궤
움직인다
reg
1598
부활절
모여서
this
가속기
태권도
장택상
Fi
성범죄
애벌레
이스턴
##ml
##실론
아르카
화학식
검사장
##uction
동명이인
Book
황도대
가고시마현
사중주
노미
마로
만두
사멸
삼부
서둘러
소변
유병
자력
창안
파니
품계
피타고라스
핵폭탄
핵실험
265
반대쪽
##리오카
요리사
슈퍼주니어
알려졌으며
Head
1775
##estival
프리랜서
걸릴
계파
메콩
밀턴
박주
베인
수서
숙성
염료
지워
추월
페퍼
##왕국
##쿠로
##플리
##댄스
##ester
253
미술가
연장선
1838
540
그레이스
가야금
Dist
line
덴버
레슬리
마누
매너
발화
부총
불황
사구
수산물
슬럼
어종
이계
이면
인슐린
정파
지단
택지
페름
포구
##얼빈
##루프
##제곱
##살라
구스타브
조계종
각별
묘법
손책
요나
절멸
탈선
##셔스
##ince
베르니
재정난
헤이그
Engine
Kill
Lim
관방
드릴
뭔가
베레
브리즈
성직
슈가
실바
예천
유장
인더스
춤추
혹평
##러워
자연사
##민정음
Fa
mon
가평
간소
구보
까치
대적
딸린
앙주
어이
외화
은둔
주둥
친숙
##ois
##워키
##개발
##메이트
독립성
정착민
포위망
좋아한다
세례명
호프만
싫어하
고어
라운
레고
만력
이도
정과
존상
티르
##대왕
form
249
234
떨어뜨리
통합진보당
Stad
밀리미터
플라스마
원내대표
Technology
Direct
Emp
Found
낸시
대흥
동복
부결
사사키
알브레히트
유예
티나
해동
호엔
##비어
##임수
다시피
베이컨
권력자
COM
편의점
캄파니아주
Doc
Gala
ass
급기야
끊이
벨레
서훈
시동
연작
장보
케네스
키노
할수록
힘줄
##연화경
##거슨
##귀비
하루카
LGBT
007
1828
페르난데스
##tific
산마리노
공물
구면
독감
레그
맞섰
미움
발주
상향
소선거구
완투
치타
하향
##cl
##ki
##보레
마리나
1787
피스톤
들어와서
BP
Ra
Swe
mem
로이스
반유
시암
쌍곡
연천
으라
점하
주앙
착오
퀴어
투과
피르
항모
##TO
##ja
##니발
##자위대
기념사업
가까스로
라인강
늘어난
에버턴
떠올리
에반스
최남단
ver
광종
궁금
알론
연좌
오성
초식
케스
훈민정음
##GE
##여왕
##급시
##ucle
1816
동북쪽
기장군
##ulture
마르티네스
앞장섰
관악구
KAI
대광
도고
배영
실물
흡혈
##기술
##소시
지도력
앵글로
브룩스
병마절도사
WK
럭키
무거
북조
상권
와다
전광
하얼빈
항저우
##gg
##고도
가져와
몽골어
게이머
돌아온다
현저히
코코넛
돼서
미신
미스트
밀워키
보임
수난
스맥
연사
임팩트
주오
후생
##EX
##St
##ος
##mph
##ria
1797
트래픽
Gro
IL
강박
레니
부원
비명
외전
인턴
저압
커크
퍼블릭
황성
##치카
아즈치
가오슝
Christmas
MO
개년
거장
경학
교우
남코
능통
사시
사성
셀러
소토
송금
수뇌
슈바르
안젤
예견
요트
정태
조식
폐간
해류
훔쳐
##no
스타스
그려지
다운타운
다케시
조교수
곤살레스
EA
Mob
고우
로메
루르
버락
수유
양손
연천군
정철
청진
청화
##외과
Death
Union
수송기
코르도바
순환선
산화물
외삼촌
고즈
관사
녹스
디시
배럴
쓰가
열등
주시
촌락
501
##anna
계몽주의
명백히
시크릿
강압
구균
구했
데프
도금
빌리지
아보
앞부분
어진
중주
펄스
한마디
핸들
##zi
##val
##코바
에히메현
애프터
Hz
Pass
남짓
띈다
수전
영흥
오경
재귀
정연
타코
탄환
홍백
##레마
##색슨
경기력
마이니치
##ument
##vers
앵글로색슨
스맥다운
Cir
GE
Mnet
가파
경치
라코
라피
보두
시왕
오정
원치
중흥
철로
초보
표범
호감
##빼미
생산력
바이든
집합론
다섯째
요코스카
발명가
교섭단체
상류층
호위함
Microsoft
극성
덤불
문부
밑면
바레
박중
섭씨
스커
스털
야채
옴니
주방
컨소시
코러스
305
세포질
드래건
헤이룽
내세운
허베이성
컨소시엄
과천
김호
독려
마티아
보사
사네
서간
서산시
심법
이교
정희
조만
집약
##니히
##야구
지원자
네덜란드인
스파이크
경향신문
시트르산
증손자
태그팀
Royal
고다이고
수류탄
Bon
간편
내쫓
대파
마네
만경
명품
불펜
쓰시
와시
응고
제반
퍼진
##경제
##프슨
##펠트
환경부
청구인
쫓겨났
옥타비아
박격포
Brown
강물
린치
신재
울음
위클리
장엄
쟁취
철원군
플뢰
회기
##더기
##본다
##단조
##tist
244
지휘봉
아시리아
태평천국
Beau
술탄국
원통형
이범석
Mk
가한
도큐
로랑
북베트남
신예
실로
약정
월급
진안
체온
타니
테베
패주
포탈
포워드
황보
##그란
##껍질
연구관
##ask
##ript
콘스탄틴
합쳐진
와카야마
em
교착
김나
도깨비
마왕
비닐
상주시
수능
순치
쑨원
어음
에틸
엣지
편도
하일
##sung
##그림
##젤란
레이드
움직여
무신론자
발자국
최북단
노던
리턴
안상
알카
양재
원망
잉글리
자급
클락
타국
폭우
풍토
학제
##개명
제작소
1453
9000
People
미완성
Festival
Il
right
나팔
도합
무안군
배송
버틀러
선더
양시
예비치
장영
크릭
타촌
##yth
##유철도
조직원
개인주의
유리수
군단장
헤이세이
항구역
수호자
Girls
일본국유철도
Bern
Fore
경수
기치
나방
에메
영해
오거
이발
이대
작인
지루
##무드
문화원
325
여름철
##ffect
Program
받아들여졌
미카사
앞장서
카리스마
기혼
난사
데시
마돈나
색조
속이
오미야
이천
지토
호가
홍대
##하트
911
##velopment
OVA
VV
각인
넓적
대면
라타
메로
못지
반원
반일
빌레
뿌려
성희
여가
윤선
좀처럼
취락
캡슐
평년
##영향
##어내
##량체
##넬라
다이너
유학생
칼리파
끊임없
소시지
More
갑판
계략
구한다
레퍼
로움
마포
밀크
선승
스퍼
업소
예카테
이베이
친형
티노
편차
피노
한류
향리
##카쓰
##우마
##방식
감독상
##elle
라이터
스트라스
고속철도
1825
레인지
1763
페미니즘
동대문구
앨라배마주
호찌민
Ur
강판
고부
고작
괴산
궤간
궤멸
대식
마제
우트
우문
일레븐
조산
체격
테슬라
투고
##타야
프로페
316
##urs
취임식
대문자
프레데리크
Business
노원구
Cast
Ka
난간
누각
대일
부응
심층
안후이
이교도
자니
장현
##가슴
##하나
##시설
##일라
제작비
가져올
발행인
##티아누스
10000
1788
960
오를레앙
오보에
알레산드로
Wild
lb
거물
걸즈
누워
누벨
밀교
방랑
불멸
블레이크
사노
성충
수작
양부
익사
자의
주청
찬가
평창군
포티
해왔
##사우스
##사와라
##inger
만화책
마쓰다
680
1780
결론지
오가사와라
영산회
휴양지
군마현
창씨개명
김응
미용
반민
섬멸
아포
이레
일직
조참
##wa
##시프
##국민당
스코트
배포판
무너뜨리
팬아메리칸
fr
게스
때리
마의
법학자
색슨
알토
연마
오시마
의성군
정구
증산
촉한
카밀
키나
퍼드
##어난
##삼문
음악회
940
콜로라도
남겨진
하코다
구독자
옵티머스
슈바르츠
Oh
Ve
non
과수원
다의
딸기
매표
맨틀
바랐
벤자
숙고
예리
왈라
중사
진양
청렴
##미드
##상도
##링거
##도서
##밍고
##포츠
##ani
표준시
안성시
부제학
레퍼토리
OF
낙농
더구나
들였
육식성
접경
코라
통사
트립
##르스크
##DR
##겐슈타인
우리나라
##acter
에드워즈
비트겐슈타인
스톤스
합법화
천주교회
Earth
Pier
Tu
bes
one
간간
네프
디랙
마촌
보니파
부록
북진
선왕
선덕
아슈
여태
올빼미
위아
인두
일신
체이
축약
코팅
##스프
##애자
##오버
사회단체
##ould
245
237
조기어류
색소폰
미약
북단
상도
소감
아워
유모
유주
장터
주황색
클립
폐막
포리스트
합전
##트론
##직할시
##물질
##처분
라이히
연주가
아랍인
기울기
밀양시
소프라노
미티
방전
방황
사세
선방
스벤
승천
오피
자락
전소
절연
짝짓
함안
혼용
황갈색
##iro
##갈렌
##평동
##옹주
사이키
##leg
263
저술가
지켜야
민속문화재
오키나와현
장크트갈렌
스털링
RAM
냉방
독단
라야
로워
만능
무방
박세
살롱
신숙
쓸모
아방
앞당
오드
이서
이등
자일
출진
쿠르트
휘두르
찾아보
쓰러지
이오시프
미즈노
테레사
오와리
NM
mark
골자
기만
담화
백국
어니스트
제각
최치
태사
회군
회랑
##시계
##tice
##iction
아닌지
도요타
후견인
코민테른
Hand
UAE
견딜
구식
급부
노토
비이
성왕
아문
예우
이분
판권
##를로
##성이
##날두
##라이즈
##idth
차이나
530
Come
무인역
점성가
오렌지색
ARM
Champion
어쨌든
헤이룽장
Mot
개회
길쭉
눈부
도감
동천
동태
마드
병리
브로스
선무
슐레스
식년
심왕
아론
액정
온전히
웨이크
유혈
윤종
주니
철제
침전
침착
칼빈
케이지
키미
파벨
팔각
하체
현급시
호날두
##사병
##피오
##뿔소
##ids
대사성
득점자
경사면
대동맥
기다렸
인디애나주
밀어내
묘법연화경
DX
If
니컬
마셨
멜리
살균
속죄
워런
윤지
이쿠
디지몬
등지느러미
원동력
유태인
설리번
갈레
결속
내비
동결
메노
방계
복고
사표
신빙
실황
여장
연일
우부
윈스턴
친목
카톨릭
##face
##요크
##전하
##웨일스
##간드
생산물
메이어
필리포스
1826
콘스탄티노스
클리프
콘스탄티노플
프레드릭
경작지
라플라스
브리트니
HC
Mind
sy
고창군
과선교
그린다
뉴사우스
리티
물의
미화
약어
엘렌
운문
잡음
제향
종과
파머
##자재
##컬럼비아
2030
레이터
보냈으며
무라야마
브리티시컬럼비아
Daniel
뉴사우스웨일스
Ltd
mar
각오
공회
김소
래드
명맥
비약
완주군
외출
입적
정육
조모
쥐라기
증서
청풍
판도
합방
헌제
##bus
##카즈
##뿌리
관리국
소유주
나카지마
포터블
봉수대
Sat
met
꽃받침
밀착
빈약
산사태
살레
선산
유추
종택
차리
한옥
##생명
##농사
나이아가
##ocal
빼앗긴
과도기
유가족
수감자
마츠모토
애리조나주
콘티넨털
거문고
나이아가라
각운동
고드
레노
부마
신데
신현
야후
연례
원판
은색
재야
철권
총합
칭한다
큐어
평온
##마켓
##레우스
##콘티
##북동
보이콧
은행나무
Anton
복잡도
공포증
999
일대기
갈라진
맥도날드
화순군
안티고노스
GC
Water
넓혔
노우
놓쳤
레흐
막혀
불순
에센
여순
울타리
원추
작화
지에
총지
친하
칼초
##우며
영화사
전투력
##amily
인기가요
정규군
1811
##ronic
Francis
HTTP
쓰임새
라그랑주
Hell
깔끔
내사
니더
비탈
비디아
시메
아강
앙투안
에비
은사
##테리
##케인
##런드
##esh
스테로이드
알렉시
510
1604
##ARD
Health
가속도
홀로코스트
카네기
Ast
From
관공
구레
노획
달팽이
병영
보현
슬라이드
심혈
애도
재량
정장
킬로그램
퍼거슨
##치니
##시다
##키타
여겨져
이스마일
##바이크
예산군
해산물
신인왕
와이파이
고르바
하비에르
블리자드
괴팅겐
Post
난방
다방
단련
도승지
번가
본회의
서라
성행위
알현
애너
원뿔
이륙
일류
표류
##21
##화가
##전력
##차크
파이썬
인사이드
1784
통영시
여호와
Foot
dec
군용
노이즈
말러
번복
보손
실격
아의
인현
잔당
청두
코토
##요리
##노신
##공간
##edia
번역본
사회주의자
재정부
미나토
비스콘티
개찰기
울릉도
골반
김천시
냉정
리오스
묵시
봉승
북면
성층
수찬
암벽
양당
연체
외젠
인회
주살
집시
채팅
쿠프
하야시
##hav
##가라
##루브
##rac
단체장
1770
모니카
해남군
Bay
Fly
ap
길목
드론
뜨겁
승소
쓰키
연성
옐로
의리
카렌
파헤
필적
홋스퍼
##우병
##호크
##에어
문학사
에이커
멕시코시티
dep
출발점
미야코
엄격히
모노레일
하우젠
SUV
temp
맥도널드
노브고로드
플러그인
총영사관
슐레스비히
각운동량
고르바초프
Ta
기함
달래
미시마
본드
섀도
숨졌
여전
잎자루
자위대
절도
척탄
타사
허영
##민턴
##아노
##부스
아이유
인도인
선발전
비서실
파트너십
##ynam
블레어
완도군
지린성
목초지
우쓰노미야
Bor
느려
마더
반구
불태우
비안
서영
서커스
성찰
소부
앵무
어간
영하
웰링턴
정설
종일
판문
홍명
환생
##르템
##fess
##SI
##전리
303
문학가
1822
파르티
식별자
공모전
무찌르
에리트레아
##르템베르크
DT
FTA
cons
간청
난입
라브
샐러드
생후
선풍
송병
수험
승패
야나기
장부
전경
차후
티미
히바
##yan
##슬란
야구팀
본다면
##스토크
테네시주
애호가
자가용
Rail
광석
금상
낙향
단판
마는
매핑
면화
밥상
수계
알트
여류
우먼
울진
자파
전폭
켈러
탁발
텐트
파샤
황궁
##정대부
##러니
##조작
##클랜드
##룩스
이끌어냈
##ellow
1660
남양주
페미니스트
호쿠리쿠
카세트
타고난
고야
노블
봐서
양방향
장력
조밀
코페르
퍼부
##교동
##에즈
자치령
Maria
제이콥
1680
발트해
불명예
고트하르트
미시시피주
안드레아스
Samsung
배드민턴
로런츠
Fort
Mount
Public
구워
돌풍
러더
매겨
벙커
윈난성
조안
타치
##에타
##공원
지원금
##스타파
달성군
주간지
테크닉
벗어났
정반대
밀레니엄
##자동차
버펄로
연해주
갔으나
권영
다기
동면
레디
루브
안트
애스턴
야자
완충
차우
철교
프시
1620
##tery
밝혔으며
보였으며
이시다
1823
##ahn
프렌치
이바라키현
은평구
Bud
Bank
궁지
목축
세그
손오
송정
앙코르
열중
전황
파월
호몰로지
회합
##상가
##더드
##급수
타이밍
1827
CNN
목판본
김유신
Fried
후백제
610
글라스
다원
버디
성녀
셀라
순창
습기
신디
심볼
총신
타계
호송
##HA
##07
##렉트
304
##이스터
생산지
아우렐
##ransp
하드리아누스
상륙작전
근본주의
오카자키
동반자
외할아버지
규장각
벤자민
그립
극좌
김만
나크
나자
다나
소각
쇼난
어셈
업종
윈저
익주
정토
제례
조미
코나미
후학
##로리
##두스
##프리트
##장식
##바트
##칼라
1610
다가가
경제력
Conn
##그래프
Kiss
MI
sch
가위
교배
다뤄
매료
미코토
밀로
박차
스메
올바르
용법
위선
증여
함평
##vir
##라프
번역가
학부모
마우리아
MY
간헐
대축
도립
레게
메우
메이드
보비
비사
서동
애버
옆구리
이랑
추봉
치역
카도
투라
포지
현안
##DC
##하리
##루시아
##회로
##폭스
오리올
승부조작
광명시
김제시
Songs
초음파
어딘가
달인
루빈
바드
산간
속박
신년
애슐리
의외
자그레
참정권
피플
핀다
희소
##테크
##고시
##청정
##튠즈
아이튠즈
다카마쓰
코르테스
Work
진흥왕
풀려나
로열스
자그레브
Dar
감히
송강
수륙
양주시
의금
이각
토후
편수
포체
한산
##개석
##렌츠
##넬리
##aly
다이라
개혁주의
1689
가쓰라
score
해적단
이준용
##거래소
알론소
can
경은
밤중
보성군
본적
북로
분대
쇼니
신드
족제비
지파
체구
체세포
코흐
페론
현내
##dle
##box
##승람
신고식
Cross
반유대주의
세그먼트
Games
국판
낙원
들판
면은
벌리
변제
숙의
조그
##영화
##fr
##연수원
262
시스템즈
요시타카
##스티누스
아프간
사토시
신생아
공예품
관동군
초전도
겸손
궁예
김봉
누설
동식물
만지
바뀔
설법
쌍방
쓰쿠
윤봉
정랑
화사
##미츠
##오밍
이나바
229
off
생물체
소방관
제이미
영지주의
##rome
실종자
충실히
스파이더맨
명륜당
Cas
Van
개폐
건지
근친
당부
상온
수개
슈만
영일
유린
육류
이비
이을
입교
전처
전량
진폭
후스
##체인
##키르
##바겐
##등기
메이크
서양식
사법연수원
에르빈
세르비아인
모음곡
진동수
중합효소
BSD
다름없
앞세워
Special
비로자나불
GHz
Ir
Sem
Social
TE
rad
광원
구국
길가
남측
노정
바바라
석학
성급
신촌
양제
유르
유유
임박
초능력
티어
파가
폐단
한진
##pa
##ji
##시니
311
403
편집기
아나스타
CHF
비정규직
최치원
HM
Right
Want
pop
관철
노량
도리어
리포
불도
스물
신간
의화
임차
재림
토구
통가
한니발
##테아
##병원
306
전반전
512
넘어섰
980
1778
1624
달려가
스러웠
신약성경
Apple
강우량
UT
계면
곤도
글라
꾸짖
노포
니르
니제르
물병
버몬트
빠진다
삼가
서광
일례
주필
테너
형이상
##상부
##코어
##연장
404
요시히로
##ideo
트랜스포
카슈미르
Say
고비
과보
근심
기흥
나베
다롄
덕흥
명탐정
방과
부스터
사춘
선법
울림
정산
주안
주공
중년
최충
충선
호스팅
혼슈
##타일
##럭스
군사령
##rim
알렉산드로
Arm
1603
모아서
가부장
History
로망스
브루크너
YMCA
영연방
Some
XX
괴로
박제
반칙
뱅크스
범하
봉산
상석
성상
수혈
오수
장진
처단
탄탄
탈바꿈
투아
홍주
##yt
##투어
##길동
##혈병
노동부
비행단
설득력
NR
무적
분실
신승
연필
원대
원예
전치
져야
출제
크레인
학비
호골
후왕
흰개미
##카레
##보쿠
2024
스포트
감염병
Muse
Train
UFO
Cer
간통
결번
금주
리스크
수월
아픈
집현
참호
팬덤
##ih
##이다
##슈빌
##묘지
##ats
##르트르
에이미
브라이언트
바꾼다
Core
Town
nd
괴테
김부
라부
레터
배재
번번
삼남
얼스터
에렌
외세
인솔
조커
중문
채운
칭다오
캐스
팬클럽
허무
혼재
##권력
##뉴얼
방문자
야마나시
트리니티
개정판
1648
더글라스
스텔라
Mu
MK
Sand
국자
김효
두만
민스크
반장
발데
안세이
양치
엡실론
오레
자우
잔기
저당
채플린
치소
태정
##바야
##oli
시켰으나
야마시타
공로자
라우터
1614
와이오밍
제사장
트렌드
디바이스
Men
ᄂᆞᆫ
결부
그걸
노팅
리호
만호
비활성
석호
이여
캐머
크래
##신기
##노비치
##퓨터
나가토
마사코
정찰기
아소카
유망주
에볼라
Sar
각서
고라
네온
당도
마일스
비핵
세세
유색
이따
일수록
휘트니
##사지
##오피스
##pha
고구마
Mary
금메달리스트
1786
밀려나
말라위
남원시
##ities
Two
케로로
고주
근해
데루
멧돼지
암반
였었
왜적
유흥
최규
##동맥
##국수
##onic
기술력
구조대
시마네
1519
Princ
무너진
left
강동구
보두앵
스트라스부르
Som
거둬
교두
근거리
노릇
대시
모기업
민자
볼거리
분립
성호
유람
차질
커맨
타바
하룻
후버
##티니
##광석
##ago
777
몰아넣
##가르드
무색계
Times
비핵화
Bob
KP
가노
고단
다각
단가
도에이
돈녕
돌궐
미구
수미
수기
옐친
저수지
졸라
찬송
##com
##동면
##무덤
레이아웃
이탈리아인
313
매일신보
##ECT
1644
발레리
우크라이나인
구로다
제네시스
경부고속도로
캔자스주
괴롭히
정읍시
사림파
소선거구제
Es
개역
군무
군역
넥슨
리버스
막말
뮤즈
미카와
미란다
볼링
습한
양주군
전령
지산
차일드
총상
##카쿠
##08
##보냈
##esis
1829
코페르니
GA
고환
공제
기오
기틀
김순
누명
데릭
도조
마유
엑스트라
원지
위문
의향
지온
치를
타악기
파올로
포프
##리프
##시효
##란도
##inary
대해선
독립당
혁명당
323
요시오
크리스토프
갈아탈
August
하룻밤
Fut
OL
UD
width
농노
뒷다리
리허
변주
소가
아난
어퍼
원순
재방송
전법
질의
풍산
활력
##레슈티
266
##roid
메릴랜드주
프로테스탄
후시미
사춘기
MV
ser
떨치
밀수
보은
에니
우등
잘츠부르크
쟁탈
접두사
참봉
청조
카고
칼날
헌트
##마뉴
##부치
##소네
다이렉트
지하수
Stage
메이슨
스웨덴어
470
1605
##라이언스
가시광선
샤를마뉴
영동군
줄리엣
척탄병
gre
각계
결절
나바라
남문
다정
도당
문묘
미그
불의
불허
샤크
아령
유현
장직
절개
좌찬성
처우
초본
프티
휘그
##진법
##에다
##누이
##복지부
프로펠러
전쟁터
거주민
전사자
옥타브
신데렐라
Der
OM
Ram
놀랍
마름
밑부분
박희
볼레
비버
빽빽
사향
수제
승탑
이변
파멸
회생
##사촌
##노지
##조치
##리스타
중앙당
그려졌
Boys
무용가
크롬웰
KM
고금
비비
비무장
오코
위엄
유쾌
임사
입방
절터
책판
처남
##러움
##숭아
##궤도
보이저
설계자
오사무
아무르
rep
##onder
비상사태
보르네오
아카이브
페가수스
att
공구
따를
린네
명기
무오
박철
섹터
스매
시련
신창
에이드
오존
유약
자상
재조합
적혈구
지의
최승
커밍
판독
피루브
하르트
화친
##아비
귀족원
옮겨져
아사쿠라
동작구
흘러가
경유지
폭스바겐
Ak
간쑤
꾸려
다트
라빈
리야
몰살
보답
수차
신겐
에지
자객
정대
좌완
초조
특파
허니
##로메
##트리스
##니컬
##For
##조약
관측소
음식물
에드윈
1590
안타깝
1777
구로구
원더러스
구약성경
Queen
Pac
감영
금품
뒷날
랄프
말뚝
매크로
분투
섹시
스무
암술
연선
오마르
옥중
음극
임지
진핵생물
풍선
##서면
##장어
##분별
##너리
##ots
완성도
Anim
증권거래소
토착민
호르헤
차가타이
하남시
바울로
휘발유
도치기현
Journal
시퀀스
Ye
bar
강진군
결점
군현
노자
다산
라모
레위
메기
방형
부계
상아
소경
신변
일광
파탄
##티스트
##RO
243
떨어질
수사관
##ersion
화물선
조지아주
Educ
##미사일
super
##여지승람
가파른
BA
가석
겸했
경직
내과
란다
모셨
본점
볼라
비장
수어
신파
엘튼
진관
캡콤
키보
##ар
##와르
247
내려지
군주국
아랫부분
add
Know
애기박쥐
자존심
YTN
구지
민진
시연
쌓이
압승
에그
유토
응축
조앤
주루
체의
파이트
##nes
##베그
##봉산
##예보
##롤터
Stra
정규직
880
기울여
Adam
사바나
Design
농어촌버스
지브롤터
Econom
Log
Russ
Take
기쿠치
단념
담양군
더미
로펌
마두
막바지
매화
변의
사족
석실
성시
성유
윔블
유랑
정열
지국
찔러
천억
최성
##yes
##사쿠
##무로
##푸라
##블러
중앙유럽
##ado
가져야
전환점
860
트라우마
다다요시
페니키아
오쿠보
에치젠
김익
납북
신보
아펜
애비
야인
왕전
육사
증설
터리
항법
헬라
##정책
##ique
##발라
##마당
##SA
##래곤
##클로
##튿날
##alis
노선도
스포츠카
케이티
Albert
마스터스
무신론
명목상
흔들림
Control
아세트산
옥타비아누스
박명
본가
부역
상보
신토
전군
친다
친필
토레스
항등
헤스
아오이
시모노세키
진도군
미하엘
미소녀
수녀원
오리건주
손오공
윔블던
Ball
Nic
누드
두아
명창
버림
보가
부치
빙판
웨딩
유타카
청천
칸토
탈리아
파스타
항거
해면
##지도
##룬디
1750
전체주의
부대원
가와치
와카야마현
식료품
피루브산
간척
꼭두
남진
다짐
돌진
면치
무학
민첩
바루
수완
앞다리
음성군
응집
이튿날
임성
잡종
전횡
지세
창사
총동원
탈옥
흑자
흑사병
##구동
##몬테
##눌프
조선조
254
교회법
아르눌프
theory
나카소네
고용주
그라나다
징역형
1618
베른하르트
였음에도
보령시
문무왕
현무암
에인절스
ال
격돌
계책
데크
데어
라세
맬컴
방비
배합
백석
볼가
북중
비우
산현
삼위
상쇄
식단
심했
아머
측도
하토
##게니
##적으로
##메라
257
Thr
헤이케
570
Scien
피난민
아이오딘
Break
이야말로
브롱크스
정약용
북중미
EOS
가용
감속
기류
남태평양
놀란
동과
무아
밤하늘
속현
스냅
신식
약체
은총
저상
편평
히포
##bre
##링스
##수산부
##난히
##바사
##멘토
##ouch
236
작용기
어린아이
Arts
##iana
align
id
kHz
게코
겐로쿠
격분
교위
권선
도민
레기
마역
무녀
반투
알림
정우
칼데라
터뜨렸
##otion
##ken
##zo
##자브
##웨시
##오스트
##ий
##vern
스피릿
전임자
web
카스트로
술라웨시
궁수자리
코페르니쿠스
AW
Key
Lar
껍데기
다승
뭉치
미케
베티스
시랑
알린
지망
취역
친근
친동생
팀원
##ious
##put
##무관
##타기
##ин
##벌린
카이두
##ova
불러일으키
박지원
Hi
강민
고차
괴산군
그게
문답
민병
베로
병장
비엘
산도
서군
쉬르
시복
시어도
어가
에리히
저마
진과
티비
하녀
##tr
##zer
##SS
##án
##해져
##버린
아니한
아이비
열린집합
아르마
밝혀냈
##aka
폭발물
라이프니츠
이슬람교도
아케메네스
법무법인
마인츠
##tiful
파이프라인
오로라
장시간
외래어
고흥군
문교부
시어도어
DL
Dog
Got
Ple
관입
급하
기약
남명
삼매
야노
얽힌
이요
콜트
해법
해져서
환호
##ko
##05
사회부
점령지
##ource
거듭제곱
Soft
괴롭힘
근연종
파르티잔
##오스트레일리아
Mov
Wall
귀퉁이
덕양구
모계
부쿠
시보
아퀴
온양
유례
융희
자모
카누
폐포
##랜도
추진력
찾아갔
마사히로
소장품
주택지
에릭슨
에마누엘
충선왕
삼위일체
부쿠레슈티
930
RX
maj
냉장
농악
민방
브란트
비드
소하
스이
신격
완행
차내
치프
친교
티타
팬텀
펀자브
펜티
포이
퓨처
한수
##티나무
##햄프
음악상
251
지배층
Anth
말레이어
오카야마현
불안감
1637
의석수
날카롭
손꼽힌다
펜티엄
BJ
Low
world
강탈
구파
뉴햄프
리소스
바르트
신당
오고
웸블리
인맥
장충
중류
한일
함양군
246
지구대
보호령
##베르데
spec
컨셉트
DMB
루즈벨트
가선대부
macOS
Academy
고보
다인
단락
덴분
미일
쉐보레
얼라이언스
유괴
재기
정다
주미
진봉
철갑
힐러리
##이시
##CE
중국식
##itte
인도주의
스트로스
매장량
이즈모
불어넣
나뭇잎
귀여운
비욘세
하코다테
620
Here
POS
각하
글쓰기
뒤편
머릿
명회
세드
소급
원거리
은상
음계
절지
조예
지프
진남
책상
체사
총파
침실
코비
편이
횃불
##ée
##04
##어머니
##추얼
사용법
2600
##chen
inf
야마자키
공학부
유키오
Organ
피에로
중합체
창녕군
Single
주계열성
의금부
Raw
Sir
Wolf
굴곡
궁녀
남만
닛코
드나들
록맨
뽑히
수자원
시치
전각
증득
췌장
코칭
폴드
##03
##투라
대통령령
교통수단
파이낸
어려우
브리핑
Maj
푸른색
이영호
스노우
가석방
총파업
Java
Rou
고다
급유
기즈
선주
유복
점막
집게
체이스
최국
태즈
함안군
##88
##도어
##고백
##야카
405
작용소
올라프
파이터스
신앙고백
1774
헤비급
위스콘신주
Council
집현전
sign
김남
나포
높일
단량체
동관
마군
미역
방목
순국
아수
앤트
앤젤
영천시
올랜도
외쳤
유파
잠들
테루
헌팅
##저트
##무진
##샘프턴
##urity
내려왔
아우디
이재명
전자기파
플랑크톤
Sweet
신숙주
Cle
감로
금하
급식
낙관
눈동자
대산
대간
도체
보천
복건
비법
승화
에베
원당
장본
주정
짝사랑
차인
채식
충정
특진
포메이션
##ident
다이오드
나카모리
동남아
Championship
Ho
RFC
Side
겸비
고레
금산군
내슈빌
단테
리간드
맥라
바하마
배차
비티
성결
순사
엠파이어
커비
키루스
투척
페놀
평시
표고
혈전
##카시
##슈나
##어놓
##뚜기
부산물
블루투스
그레그
모여들
아르메니아인
플뢰레
Cop
Mass
공론
로카
백마
백금
상학
생부
수니파
순응
역법
올린다
재가
정미
총력
판각
폐업
홍성군
##코더
##09
##함대
그리핀
크리스찬
시행령
마사키
Marie
Adv
바티스타
확고히
스타트업
프로페셔널
lo
tw
교신
김미
노섬
랜스
말갈
문항
브라이트
악영향
예장
원균
이그
인방
인내
찬반
참새
책자
함포
행법
호놀
##준호
##룰루
##룸푸르
273
수행원
Cha
##ysis
스피어
일어났으며
올렸으며
메달리스트
영암군
행방불명
호놀룰루
Mys
TT
군소
그쳐
람다
말초
셰르
소이
양태
직역
판교
##kin
##기름
지원군
훈련소
스피어스
보건복지부
가나안
우르바
제후국
##olar
행진곡
카롤링거
프리스타일
스포르차
트랜스포머
캐머런
710
KF
cap
납세
느티나무
데라
레브
마우리
몰렸
무마
불선
비앙
산양
예거
오귀
우참찬
주당
카베
툴루즈
파면
피력
헤아
##테론
##쓰키
286
##iger
##ache
이동식
##ota
States
연기력
집합체
공급원
1609
##ACK
청계천
수족관
Bell
다호
랜더스
랭스
러너
레트로
베넷
부령
사피
셜록
송영
순화
양공
에이트
오페
원호
은화
음수
저온
전편
주법
징시
총관
햇볕
행태
##티콘
##포도
그리피스
##atory
오스카르
스파크
1781
합격자
아비뇽
상상력
##보르기니
Micro
계엄령
미켈란
시마네현
POP
감형
남대문
눈앞
덩치
람보르기니
로도스
린턴
밀정
식생
신수
안도
오언
입회
전근
종용
지낸다
진법
해충
##lu
##이동
##러햄
##보스토크
##즈버그
##암면
##ination
몽골족
스탠더드
Johann
아오야마
블라디보스토크
1080
청도군
콜라보레이션
오스트로네시아
패미컴
Data
Jer
VL
bre
간담회
구락부
나침
남수단
니라
바쁜
세아
속임수
송광사
접대
정한다
진통
진왕
카오스
킵차크
파룬
포세이
푸트
행했
홍천군
##06
##시장
평화통일
##iph
Spe
신비주의
카탈로그
Media
광무제
야마가타현
캐피털
포츠담
윤석열
맞물려
파룬궁
포세이돈
PV
눈길
눈썹
만과
빈스
수산화
양사
이숙
정운
조희
충숙
한눈
후륜
##포화
241
분리주의
마리우스
##thur
헤르베르트
ᄒᆞᆫ
충숙왕
Av
Gal
LM
NGO
가평군
견과
계림
기쁘
나요
리기
리누스
명곡
베로나
소현
수공업
아라이
엿보
영창
옮길
인어
처해졌
코덱
피코
##지우
다이애나
##aph
##obe
원작자
알아냈
Management
PSP
레버쿠젠
버펄로스
엠블럼
Hu
main
sur
가압
경산시
기로
넙다리
리니
마샬
반탁
변주곡
병부
보른
상거래
선적
스탄
여흥
역인
옥고
저승
정나라
지라
철새
##bi
##수사
##엄경
##조프
부산시
이동한
노르딕
##ston
발사대
##노스케
Sea
도전자
1570
SEED
피어슨
도파민
슈바벤
위아래
Jon
대첩
동역학
뒤셀
문란
밸런스
부안군
쉬워
접견
주동
청해
코즈
풀럼
헬멧
알려준다
에드거
아라키
황금기
크로스오버
동구권
관람객
프레이저
model
형이상학
뒤셀도르프
Sin
back
가만
거창군
게양
루벤
미처
본따
불발
스틴
야나
울라
이신
이륜
추도
콤플렉스
특산
##리시
##베다
##콜라
프로스
315
성장률
이사벨라
케이시
##elli
Airport
리허설
data
number
고귀
금오
망설
무릅
뮌스터
분가
상나라
시리우스
에테르
우의
재킷
지났
질레
파급
환각
훔치
##정지
##츠만
##권법
1650
레이더스
고려인
코르넬
레지옹
출산율
ᄒᆞ야
매출액
Karl
비키니
Victor
Gun
RB
Wood
dist
fis
거센
덩샤오
레우
망하
벤조
부츠
빌럼
사철
시급
용자
워프
초인
피토
황조
##네세
##박해
##극장
248
크리스털
대장경
무제한
McC
포츠머스
아칸소주
마틸다
덩샤오핑
Ly
Tar
가트
간극
경쾌
대연
더그
디노
만인
만네
문리
미쳐
반월
법당
뼈대
석물
윙스
조운
크누
##기군
##코이
##하치
##공격
##곡사
시작점
에이로쿠
아라카와
자라나
1582
사우스캐롤라이나
##ulation
불명확
Peace
Feel
뉴저지주
세바스
에이브러햄
당분간
서보장
기복
노키아
도지
될지
부룬디
빈혈
에티
전태
청양
치부
한상
호나우
화의
##ple
##oria
내려진
333
There
1506
1607
1785
수집가
레오니
ᄒᆞ며
발상지
랭커스터
미켈란젤로
Field
Squ
근현
누출
명실
미쿠
변명
사누
사투리
선한
악한
앙헬
외피
으라고
일축
장유
정석
조로아
카가미
탱화
평단
피파
회선
##미코
##56
##통감
##입상
308
기관사
1758
베른주
마애불
간사장
의용군
중견수
근소
금당
따내
모성
변태
붓다
산세
산군
산후
원류
유황
임해
장동
중창
추앙
태위
풍화
##내려
사이코
기업체
353
정신병
보수파
세르비
Only
정선군
Gard
Lord
sm
기제
도저
동프랑크
레토
박은
소공
시세
연나라
왕망
입선
함인
후카
##세서리
##샤르
##시안
##계선
##밍턴
##리스토
공격력
242
의사당
요시쓰네
아라우
청소년기
안타까
이뤄져
신뢰도
사마의
파울리
아폴론
Secret
콜레라
리베라
김원봉
AEK
ᄀᆞᆯ
고영
김택
돌방
레시
반년
방역
백혈병
봉천
빙상
역병
영제
직구
질감
창자
컴포
포용
폴더
학식
행주
홍진
##사토
##가이
##저리
##문왕
##커버리
아르타
포르쉐
머리장식
청년단
마쓰이
Season
1649
1627
플레밍
모듈러
수신기
테레비
곡률
기침
남도
니어
드와
마산시
문공
민스
써야
악몽
일인
잡스
중군
진무
천성
태클
풍력
휴지
##디트
##이라
##mond
##플라
##렁크
20100
##eld
진행할
영양소
1536
모른다는
수양대군
갈비뼈
산기슭
자부심
박원순
극소수
경순왕
리카르도
탄화수소
PT
계모
고메스
기년
레코
머레이
병참
십시오
알란
역간
인포
장주
장화
제석
취입
합중국
헤딩
##보전
307
나가오카
해양수산부
1782
아리마
Paris
밀리언
척추뼈
하이델베르크
나침반
Cour
MG
Turn
Women
ep
군왕
김화
넘긴
단양군
대월
묶음
보크
살린
서계
선분
속명
스탬
슬라이
육조
임오
조망
특보
특산물
패소
피레
하네
해요
행차
##드랑이
##PN
##저기
##게르
##전설
##징금
##쿼이
258
인조반정
670
불신임
##테이프
이뤄지지
네바다주
칠곡군
LE
Nav
bas
cur
가칭
가출
굴리
기예
로슈
명료
봉선
봐도
성역
시한
애쉬
야산
원피스
차라리
측실
카펜
토막
필즈
합세
##스카이
##마침
##본주의
##비시
##케로
269
274
회의소
국경선
감사원
보상금
인산염
시바타
스턴스
마술사
다치바나
슬럼프
Wi
rem
구드
끝낸
두리
레슬러
리쿠
모리오카
목도
바카
반짝
수세
수혜
엑소
입힌
정우회
조아
집대성
쫓기
혼수
홍준
##ming
##젠베르크
##별초
조선족
아이누
지원병
다이라노
비행선
헝가리인
말라리아
김철
루시아
미도리
방직
분청
실링
악용
온게임
우여
위급
천진
클랩
퇴학
패닉
포커
##action
베이시
Staff
보인다고
학술원
When
1580
플레어
파이어폭스
Days
드레스덴
앨리슨
온게임넷
810
Code
Test
nt
교각
난부
돌이
마장
바주
빙그레
생육
속기
수모
심취
어근
원초
제논
줘야
진평
코언
호부
##버려
##히라
##ᄃᆡ
기록물
##rag
차이콥스키
못했으나
하이젠베르크
사라예보
전해진
##artment
히데키
Produc
달라질
최우선
완벽히
카나리아
바나흐
카니발
Point
마요르카
Gab
OFC
건반
과소
네버
도원
도일
뒷부분
랜더
맞먹
범퍼
복숭아
석굴
소우
수려
수르
쌍극
쌓인
였으니
위세
장방
처참
초선
칸나
캐넌
키는
편대
##리처
##mi
##컴퓨터
252
사고방식
##rive
ins
내려다
##ips
하드코어
유기물
1615
광산구
탐험대
리저브
로미오
토후국
당구
말엽
소조
월계
이두
인디아
전영
최단
포경
황룡
휴고
##UE
##ergy
대표부
프랑켄
302
브라만
여기저기
수사학
##ques
위안스카이
오세아
English
캐롤라
두만강
이따금
프로테스탄트
major
Ti
곁들여
고상
기꺼
단풍
린스
명망
백범
벌써
브라이
비나
사타
사브르
수체
안도라
에토
임영
장막
주박
찰나
최윤
터진
튀김
퍼트
푸앵
플레인
피쉬
할레
행각
##디니
##베스트
##UB
##레즈
##네즈
##LD
351
바르톨
##ector
##AND
##ENT
신조어
아브루
트레일러
Matt
MLS
WR
공실
과대
꺼려
남중국해
대홍
동궁
사샤
에머
우메다
이스터
일요
존스턴
질산
킬리
탑비
트렁크
호분
##PG
##케라
285
내려놓
전용도로
##oke
1759
못한다는
광양시
Draw
코네티컷주
Four
na
갇힌
공위
교목
니코스
당산
리뉴
사공
쌍계사
온몸
우방
울창
젤다
조짐
치솟
편광
##발디
##주제
##전동
##첼로
##roph
##osition
##irit
inc
580
부평구
두터운
항공우주국
우르바노
Pu
내연
다진
라메
레자
명승
밝힌다
소제
스펠
심도
엽록
오위
원어
이충
전업
죄책
지멘스
코요
회동
##lav
데이먼
문학부
Anti
피에몬테
줄어드
해왕성
AH
Fant
Rod
거동
궁핍
노렸
달빛
동주
뒤지
리디
무령
미달
미호
민다
변위
북주
영주시
오베르
완패
이음
인트
조이스
진자
초구
총탄
충절
치바
택했
티탄
